<pad>	0
<unk>	0
<s>	0
</s>	0
▁	-2.87161
s	-3.55114
e	-4.3368
▁de	-4.43699
t	-4.56152
i	-4.74053
o	-4.77941
a	-4.79031
n	-4.94398
r	-5.01927
▁the	-5.18831
▁en	-5.29049
▁la	-5.30787
▁in	-5.32748
d	-5.40009
m	-5.40418
en	-5.52112
▁que	-5.52243
er	-5.56085
▁of	-5.60551
y	-5.71869
es	-5.76431
▁wikipedia	-5.77719
▁un	-5.78729
k	-5.79411
▁to	-5.79627
▁di	-5.81499
▁and	-5.84013
ed	-5.84808
u	-5.85046
l	-5.86963
▁se	-5.91602
▁du	-5.93674
ು	-5.93933
▁le	-6.00077
ing	-6.0748
ar	-6.16518
е	-6.17617
c	-6.17719
re	-6.22319
▁be	-6.24574
te	-6.24716
്	-6.27291
▁et	-6.28439
g	-6.34609
▁da	-6.37903
le	-6.3948
▁is	-6.39877
▁no	-6.4013
de	-6.40439
а	-6.41111
▁ال	-6.42345
и	-6.43795
▁je	-6.44499
é	-6.4494
in	-6.45933
al	-6.4916
▁for	-6.49201
ة	-6.51135
ا	-6.53316
p	-6.54025
▁att	-6.5527
f	-6.55952
ra	-6.58471
▁est	-6.59435
ly	-6.59544
▁as	-6.60061
ം	-6.61742
ta	-6.65292
h	-6.66672
▁con	-6.66814
ti	-6.68814
to	-6.70091
ν	-6.7046
▁por	-6.7193
▁wikipédia	-6.73432
▁il	-6.74646
α	-6.7509
▁des	-6.7574
▁that	-6.75986
▁si	-6.76086
▁det	-6.76135
▁do	-6.76225
▁el	-6.7754
▁och	-6.78636
▁che	-6.78797
▁re	-6.79694
▁me	-6.80236
an	-6.80999
▁on	-6.81285
о	-6.81565
▁ve	-6.8162
b	-6.8237
▁at	-6.83014
ão	-6.83751
▁son	-6.83844
▁es	-6.84085
▁les	-6.8431
▁في	-6.84353
ت	-6.84916
▁som	-6.85017
▁you	-6.86231
▁al	-6.86707
்	-6.87501
▁para	-6.89257
▁su	-6.89582
ς	-6.90406
ich	-6.90947
do	-6.91157
▁an	-6.91267
ı	-6.91904
▁una	-6.9218
▁so	-6.92358
z	-6.92703
ي	-6.92838
st	-6.92887
is	-6.93887
et	-6.94109
▁per	-6.94528
▁ne	-6.95611
▁kan	-6.95708
▁par	-6.95994
▁em	-6.97658
▁une	-7.01143
ment	-7.02163
▁vous	-7.02431
ി	-7.02515
ك	-7.02984
▁om	-7.03181
у	-7.033
▁er	-7.03474
ce	-7.0361
se	-7.03956
м	-7.04108
ு	-7.04256
▁het	-7.0463
▁har	-7.05893
ma	-7.06226
▁να	-7.0645
ಿ	-7.06519
▁it	-7.06773
ch	-7.06933
▁من	-7.07224
ι	-7.07978
▁av	-7.08011
▁a	-7.09646
▁på	-7.09989
▁ha	-7.10396
▁är	-7.11157
▁ou	-7.11648
▁te	-7.13538
т	-7.1358
▁você	-7.13664
▁bir	-7.13884
▁um	-7.15419
▁nature	-7.15465
▁ge	-7.15719
ir	-7.15945
ten	-7.16248
ci	-7.16312
w	-7.17648
▁como	-7.17694
▁com	-7.17727
▁van	-7.17736
▁dans	-7.17758
ാൻ	-7.17847
na	-7.17977
ा	-7.18267
د	-7.18275
ه	-7.18617
ne	-7.18661
no	-7.1918
it	-7.19254
▁pas	-7.19288
v	-7.19845
▁на	-7.2
▁was	-7.20058
di	-7.20555
я	-7.20932
،	-7.21486
on	-7.21617
▁qui	-7.21631
▁bu	-7.22198
▁een	-7.23267
▁för	-7.23272
▁أن	-7.23376
ു	-7.23655
لى	-7.23784
н	-7.25179
▁can	-7.25427
ನ್ನು	-7.2582
mente	-7.25927
▁or	-7.26081
▁med	-7.26222
da	-7.26794
ر	-7.26804
as	-7.27039
▁non	-7.28435
ca	-7.28458
▁del	-7.28632
am	-7.28689
la	-7.29334
م	-7.29723
▁with	-7.30713
▁не	-7.31107
li	-7.31892
▁na	-7.32341
▁n	-7.32533
us	-7.33948
os	-7.34559
ع	-7.34562
ರ	-7.3538
▁by	-7.35546
▁ع	-7.35755
ur	-7.35837
▁что	-7.36058
▁los	-7.36194
me	-7.36364
que	-7.36367
л	-7.36448
▁நீங்கள்	-7.36845
▁sie	-7.37026
co	-7.37591
▁lo	-7.37613
▁ನೀವ	-7.38438
с	-7.3853
▁ik	-7.38677
▁are	-7.39155
ും	-7.39294
▁ver	-7.39529
va	-7.39616
ä	-7.3985
й	-7.40342
ும்	-7.40908
▁ce	-7.41012
den	-7.41933
lo	-7.42131
▁ب	-7.42192
▁το	-7.42426
▁و	-7.42865
▁wiki	-7.43031
ndo	-7.43782
ാ	-7.43807
ά	-7.43858
▁ت	-7.4423
ы	-7.44252
▁c	-7.44258
ro	-7.44498
αι	-7.44573
े	-7.44831
▁man	-7.45154
el	-7.45192
ation	-7.45547
▁και	-7.45968
ق	-7.46303
ü	-7.46528
j	-7.46815
െ	-7.46884
▁m	-7.46956
▁og	-7.46975
ن	-7.47216
η	-7.47723
ant	-7.47729
▁das	-7.47775
▁var	-7.47931
ത	-7.48018
▁dat	-7.48067
ion	-7.48332
jag	-7.48433
τε	-7.48626
യ	-7.48784
um	-7.49103
▁uma	-7.4913
▁tu	-7.49686
▁по	-7.49714
х	-7.49747
ಾ	-7.49823
ez	-7.499
▁all	-7.50625
▁he	-7.50846
ent	-7.5093
ο	-7.51353
ó	-7.51549
▁вы	-7.51774
ve	-7.5215
▁pour	-7.52217
vi	-7.52459
il	-7.52694
tion	-7.52725
ter	-7.5303
▁ಮತ್ತ	-7.53383
ات	-7.54293
▁ನಾ	-7.54999
or	-7.55192
ω	-7.55716
▁sur	-7.55716
▁den	-7.55752
து	-7.56922
▁jeg	-7.57455
ಗೆ	-7.57523
▁op	-7.57686
ли	-7.57974
ை	-7.58172
▁l	-7.58351
’	-7.58863
ನು	-7.58867
ح	-7.59174
▁learning	-7.59898
ದ	-7.60327
र	-7.6073
മ	-7.6091
▁inte	-7.61122
▁au	-7.61505
▁م	-7.62424
വ	-7.62638
ou	-7.62655
ًا	-7.6285
▁أ	-7.63182
▁ويكيبيديا	-7.63914
▁wh	-7.63995
▁pro	-7.64173
ke	-7.64206
р	-7.64346
س	-7.64548
ര	-7.65502
▁это	-7.66475
▁b	-7.6731
ado	-7.67421
ி	-7.67848
ş	-7.68055
á	-7.68419
▁have	-7.68425
வ	-7.69157
x	-7.69283
▁fro	-7.69472
ción	-7.69623
ل	-7.70141
▁vi	-7.70235
▁wikimedia	-7.71449
ge	-7.71483
▁h	-7.71507
و	-7.71514
▁dig	-7.71778
ர	-7.71996
ε	-7.72239
▁und	-7.72304
ೆ	-7.72709
▁not	-7.73193
▁af	-7.73388
ವ	-7.73558
ов	-7.73621
gen	-7.73734
ic	-7.7477
▁fa	-7.74787
▁sa	-7.74972
▁die	-7.7512
λ	-7.75388
ية	-7.76293
▁с	-7.76828
▁നിങ്ങൾ	-7.77031
▁g	-7.7708
un	-7.77138
σ	-7.77434
▁men	-7.776
್	-7.77732
▁till	-7.77768
lar	-7.7786
ம்	-7.78056
▁this	-7.78433
▁ri	-7.78587
ia	-7.78813
ю	-7.78859
ها	-7.79044
▁articles	-7.79268
έ	-7.79474
▁så	-7.79676
▁ma	-7.79697
▁ப	-7.80076
▁ഒരു	-7.80808
▁está	-7.80966
▁mais	-7.81221
ج	-7.81474
▁ord	-7.81764
ven	-7.82003
»	-7.82043
ч	-7.82195
▁ஒரு	-7.82951
είν	-7.8394
േ	-7.84539
vo	-7.84732
at	-7.84882
▁eller	-7.85042
▁don	-7.85045
ή	-7.85836
п	-7.85868
▁narcisa	-7.86047
iz	-7.86487
▁που	-7.87165
▁over	-7.87259
▁zu	-7.88164
sta	-7.88305
▁ي	-7.88342
▁os	-7.8853
▁был	-7.88589
▁ho	-7.88597
ть	-7.88908
д	-7.89448
ിൽ	-7.89449
ste	-7.89487
he	-7.89706
▁για	-7.89788
ig	-7.89896
ய	-7.90032
▁co	-7.90226
ந்த	-7.90813
ी	-7.90993
▁has	-7.91058
ं	-7.91074
▁ist	-7.91471
ب	-7.9186
▁sua	-7.91864
lu	-7.92124
ில்	-7.92447
▁oh	-7.92676
▁الم	-7.93261
▁എന്ന	-7.93495
▁come	-7.93535
▁k	-7.93562
▁ما	-7.93798
▁நான்	-7.93902
ό	-7.94113
ല	-7.94299
ement	-7.94319
в	-7.94701
▁po	-7.94719
ler	-7.95149
▁significa	-7.95293
▁sobre	-7.95317
der	-7.95456
▁pode	-7.95536
▁dell	-7.95647
▁plus	-7.95798
▁dire	-7.95967
▁data	-7.95984
्	-7.96724
।	-7.96735
▁machine	-7.96739
ക	-7.96769
▁niet	-7.96796
ρ	-7.97186
és	-7.97191
tre	-7.97294
▁we	-7.97351
▁p	-7.98628
nt	-7.98864
ർ	-7.99051
▁ol	-7.991
em	-7.99132
ز	-7.99573
ि	-7.99685
▁ad	-8.0034
í	-8.00464
▁ser	-8.00756
ш	-8.01073
ன	-8.01174
gle	-8.01187
able	-8.01209
ني	-8.01232
▁д	-8.01347
ga	-8.02127
lla	-8.02166
ção	-8.02393
▁ಎಂದ	-8.02663
▁هذ	-8.02912
ada	-8.02955
▁ai	-8.03148
ോ	-8.03211
ട	-8.03241
▁ότ	-8.03482
ck	-8.03508
ek	-8.03877
ой	-8.03974
ом	-8.04125
г	-8.04199
▁zo	-8.04495
▁tr	-8.04496
po	-8.04594
å	-8.04664
za	-8.05046
▁sk	-8.05444
ص	-8.05459
ನ	-8.06033
ning	-8.06149
mi	-8.06435
ando	-8.07267
ط	-8.07292
▁word	-8.07359
▁mi	-8.07508
▁ba	-8.08275
▁ل	-8.08423
ال	-8.0846
ذا	-8.08557
▁pe	-8.08656
▁als	-8.08695
go	-8.08744
▁web	-8.08877
ώ	-8.08964
▁wales	-8.08971
man	-8.09051
▁ikke	-8.09082
न	-8.09312
▁v	-8.09435
▁comme	-8.09471
▁qu	-8.09606
▁inter	-8.09697
▁eu	-8.09818
▁nel	-8.10044
▁ya	-8.10896
▁அ	-8.10899
▁met	-8.10928
▁ex	-8.10947
ாக	-8.1095
▁article	-8.11042
ா	-8.11088
are	-8.11655
▁her	-8.12263
▁video	-8.12277
ba	-8.12516
▁min	-8.13126
க	-8.13155
▁mig	-8.13156
خ	-8.13787
ക്ക്	-8.13909
ಾದ	-8.13948
ش	-8.14456
▁mot	-8.15375
ക്ക	-8.15481
▁δε	-8.15577
▁википедии	-8.15689
▁как	-8.15691
ля	-8.15835
وا	-8.1595
▁за	-8.16429
ൽ	-8.16449
▁ra	-8.16477
த்த	-8.16703
▁d	-8.16949
പ	-8.16956
ng	-8.17241
▁mu	-8.1725
▁voor	-8.17491
ver	-8.17498
ь	-8.17677
▁என்று	-8.1778
cu	-8.17838
ет	-8.17889
▁some	-8.17927
▁π	-8.18012
che	-8.1805
го	-8.18156
з	-8.18244
ف	-8.18359
▁quand	-8.18566
ى	-8.18598
ée	-8.18676
▁entre	-8.18773
ين	-8.18836
▁li	-8.18883
dan	-8.18917
▁internet	-8.19231
▁के	-8.19232
க்க	-8.19262
ما	-8.19419
get	-8.19778
▁cha	-8.20498
ல	-8.208
ே	-8.20944
▁है	-8.2101
▁يمكن	-8.2105
▁catch	-8.21058
om	-8.21104
ni	-8.21554
age	-8.21555
ut	-8.21776
▁sp	-8.2183
வும்	-8.21973
▁то	-8.2204
ía	-8.22375
ಯ	-8.22623
▁σε	-8.22779
ми	-8.22907
▁nicht	-8.22912
▁sol	-8.23
▁tra	-8.23116
amente	-8.23248
▁foi	-8.23525
്റെ	-8.24137
▁til	-8.24281
▁era	-8.24466
त	-8.2467
▁other	-8.24811
▁в	-8.2494
φ	-8.24945
к	-8.25036
▁real	-8.25403
ிய	-8.2562
▁لا	-8.25891
ki	-8.25919
▁artículos	-8.26013
ί	-8.2609
ais	-8.26186
ken	-8.26517
▁так	-8.26699
▁كان	-8.26726
▁nu	-8.2673
▁las	-8.26771
θα	-8.26983
rna	-8.26994
ém	-8.27111
▁αν	-8.27397
be	-8.27689
▁peu	-8.28082
▁fe	-8.2817
▁der	-8.28231
▁ಅದ	-8.28603
▁आप	-8.2867
▁tamb	-8.28671
▁zijn	-8.28673
th	-8.28688
▁million	-8.28691
▁time	-8.28955
▁such	-8.29161
▁ka	-8.29165
▁bien	-8.29205
γ	-8.29282
ido	-8.29454
▁also	-8.29845
nde	-8.29915
ുടെ	-8.29977
▁parte	-8.30045
▁ta	-8.30275
ка	-8.30493
▁ес	-8.30701
на	-8.30766
ल	-8.31115
ре	-8.31397
ka	-8.31709
▁க	-8.31737
▁f	-8.31768
fi	-8.31892
▁war	-8.32007
▁use	-8.32166
ая	-8.32533
▁pu	-8.32537
▁σας	-8.32712
▁ты	-8.32722
▁être	-8.32762
ού	-8.32813
▁mar	-8.33076
qui	-8.33243
ся	-8.33288
▁أو	-8.33688
▁esto	-8.33715
▁dit	-8.33796
▁qual	-8.34155
ೇ	-8.343
▁han	-8.34527
▁പ	-8.34802
ria	-8.34835
▁kun	-8.35026
им	-8.35156
▁ze	-8.35543
κ	-8.35735
▁eine	-8.35797
▁ف	-8.35889
ல்	-8.35951
▁ക	-8.3622
क	-8.36381
но	-8.364
μα	-8.36421
ity	-8.36513
▁وال	-8.36668
ുക	-8.36746
▁stat	-8.3675
ோ	-8.36862
dos	-8.3687
▁με	-8.36894
▁لل	-8.36905
व	-8.36919
▁apprendimento	-8.36922
▁μια	-8.36922
ğ	-8.36949
த	-8.3741
▁forma	-8.37442
▁version	-8.37463
▁puede	-8.37696
ൾ	-8.37952
▁pa	-8.37958
ει	-8.3836
▁bi	-8.39032
men	-8.39062
غ	-8.39075
ಸ್	-8.39232
▁base	-8.39684
▁bo	-8.39696
té	-8.3974
▁one	-8.39851
▁αυτό	-8.40027
ın	-8.40179
▁ett	-8.40404
▁esta	-8.41079
▁dan	-8.41154
▁edit	-8.41279
ಡ	-8.41318
▁από	-8.41325
▁மற்ற	-8.41329
▁или	-8.41339
▁enciclopedia	-8.41481
era	-8.41548
▁sin	-8.42167
mp	-8.42274
υ	-8.42462
▁tem	-8.42586
lig	-8.42666
αν	-8.42719
ès	-8.42983
zione	-8.42991
ത്	-8.43037
их	-8.43297
ici	-8.43314
my	-8.43319
द	-8.43421
ου	-8.43527
▁ein	-8.43559
да	-8.43588
ான	-8.43615
cette	-8.43718
ಕ	-8.44168
ون	-8.44324
▁из	-8.44582
ла	-8.44823
▁alle	-8.44864
je	-8.45364
ей	-8.45514
▁public	-8.45533
ಲ	-8.45609
▁için	-8.45917
▁года	-8.45918
æ	-8.45919
▁life	-8.4592
▁все	-8.45921
▁sanger	-8.45923
ito	-8.45929
▁human	-8.4593
▁foundation	-8.45943
▁questo	-8.46004
ാൽ	-8.46036
ர்	-8.46049
▁like	-8.46058
ère	-8.46088
▁frase	-8.46146
ಲು	-8.46336
ст	-8.46434
wi	-8.46701
▁altr	-8.46837
▁elle	-8.46957
são	-8.4725
▁but	-8.47258
pi	-8.47751
ري	-8.47785
tu	-8.47855
ത്ത	-8.47855
▁gi	-8.48207
▁puoi	-8.48306
▁englis	-8.48314
▁if	-8.48349
▁ത	-8.48408
ance	-8.48609
▁new	-8.48681
▁ம	-8.48894
▁say	-8.49015
▁general	-8.49067
mento	-8.4947
ो	-8.4962
ث	-8.49825
—	-8.50024
▁todo	-8.50121
▁inc	-8.50321
ಂದ	-8.50426
vec	-8.50426
▁ನಿಮ್ಮ	-8.50736
▁jim	-8.50737
▁about	-8.50745
▁ga	-8.50814
க்	-8.51184
▁model	-8.51304
ால்	-8.51804
ൻ	-8.51847
▁artigos	-8.52035
▁pi	-8.52193
▁wen	-8.52414
أ	-8.52487
ുള്ള	-8.52733
à	-8.52735
▁pre	-8.52862
ую	-8.53098
ska	-8.53191
▁மிக	-8.53225
▁में	-8.53236
▁smart	-8.53236
▁wir	-8.53308
▁page	-8.53402
ag	-8.5357
▁ré	-8.53688
▁ಹ	-8.54139
▁más	-8.54207
▁test	-8.5425
▁vo	-8.54363
ற	-8.54476
▁under	-8.54598
ger	-8.54716
▁ob	-8.54808
▁part	-8.55113
ner	-8.55119
ன்	-8.5522
ση	-8.55312
ീ	-8.55717
ങ്ങൾ	-8.55796
▁vikipedi	-8.558
▁ένα	-8.55801
ത്തിൽ	-8.55841
ph	-8.55983
ring	-8.56027
ен	-8.56073
χ	-8.56105
ಳ	-8.5625
▁more	-8.56491
ാണ്	-8.56514
mer	-8.5658
▁problem	-8.56735
▁there	-8.5674
▁vez	-8.56744
▁andere	-8.56874
▁വിക്കിപീഡിയ	-8.57076
tter	-8.57086
ade	-8.5709
ye	-8.57374
ados	-8.57858
ju	-8.58126
ρα	-8.58208
▁कि	-8.58239
est	-8.58243
pa	-8.58276
▁του	-8.58385
ض	-8.58431
▁più	-8.58432
▁википедия	-8.58432
▁ನನ್ನ	-8.58433
ರೂ	-8.58469
▁vers	-8.58596
▁fait	-8.58685
▁sens	-8.58925
ande	-8.59234
▁स	-8.59548
line	-8.59606
▁fi	-8.5965
▁ut	-8.5977
ligt	-8.59933
ير	-8.59963
▁ti	-8.60029
ted	-8.60079
val	-8.60369
gli	-8.60519
vent	-8.60545
▁whi	-8.60628
az	-8.60715
▁este	-8.61019
▁от	-8.61024
▁tre	-8.61055
▁process	-8.61056
ശ	-8.6106
ò	-8.61135
▁എനിക്ക	-8.61135
▁libre	-8.61135
ಸ	-8.61202
ने	-8.61233
сь	-8.61241
ко	-8.61281
ç	-8.61349
▁étai	-8.61452
ato	-8.61666
▁sta	-8.61749
ப்	-8.61756
▁бы	-8.61808
രു	-8.62404
▁sus	-8.62719
dre	-8.62881
ers	-8.62893
▁mit	-8.62913
▁ço	-8.63436
β	-8.63451
iste	-8.63604
യും	-8.6361
ique	-8.63614
▁number	-8.63912
▁molt	-8.63914
▁nupedia	-8.63933
ze	-8.64054
▁wat	-8.64088
▁hel	-8.64188
pla	-8.64351
▁mas	-8.64472
tes	-8.64823
▁cas	-8.65005
ется	-8.65285
fer	-8.6537
lle	-8.65451
ின்	-8.6548
▁sig	-8.65558
ار	-8.65631
ndi	-8.65712
▁pri	-8.65724
▁us	-8.65773
tro	-8.6596
ld	-8.66048
ж	-8.66069
ைய	-8.66349
വും	-8.66364
اء	-8.66368
▁persona	-8.66495
▁ಸ	-8.66648
ry	-8.66663
vis	-8.6667
டி	-8.66684
▁இது	-8.66769
▁encyclopedia	-8.6677
▁ನಿಮ	-8.6677
▁एक	-8.6677
▁pouv	-8.66785
▁betyder	-8.66821
▁التي	-8.66836
▁ഇത്	-8.66845
δ	-8.66977
▁plan	-8.66985
▁നിങ്ങൾക്ക	-8.67176
ണ	-8.67214
ence	-8.6725
▁é	-8.67421
▁ci	-8.67526
ുന്ന	-8.67576
▁my	-8.67618
те	-8.68213
θ	-8.68222
lich	-8.68388
ras	-8.68413
lan	-8.68464
if	-8.68867
ദ	-8.68937
▁esser	-8.69442
ച	-8.69481
ité	-8.69565
▁ச	-8.69583
ø	-8.69588
य	-8.69632
த்	-8.69707
▁voci	-8.69808
▁ಮ	-8.69818
du	-8.69955
eux	-8.70074
▁jo	-8.7015
▁mich	-8.70394
ಾಗ	-8.70394
▁fr	-8.70717
▁up	-8.70844
ра	-8.70886
▁என	-8.70908
ύ	-8.70945
▁ko	-8.70972
dig	-8.7117
മായ	-8.7149
▁sou	-8.71515
▁у	-8.7192
cent	-8.71954
та	-8.72089
▁πο	-8.72224
▁fu	-8.72567
▁language	-8.72741
▁phrase	-8.72741
▁know	-8.72741
▁aussi	-8.72744
▁அல்லது	-8.72745
िए	-8.72748
▁может	-8.72751
▁μπορείτε	-8.72759
▁हैं	-8.72803
▁person	-8.72839
▁wie	-8.72856
▁algo	-8.72966
▁encyclopédie	-8.73022
▁goo	-8.73026
സ്	-8.73055
نت	-8.73242
▁ಬ	-8.73307
▁те	-8.73341
▁will	-8.73377
▁information	-8.73406
же	-8.73415
▁tro	-8.73501
ப்ப	-8.73576
▁—	-8.73636
▁kom	-8.73693
б	-8.73816
▁used	-8.73853
கள்	-8.74118
ിയ	-8.74132
▁fin	-8.74275
▁ac	-8.74285
هم	-8.74342
len	-8.74346
▁seu	-8.74476
▁mis	-8.74496
▁alla	-8.74496
ell	-8.7452
ைப்	-8.7488
▁dir	-8.74908
▁പറയ	-8.75064
ள	-8.75065
▁aan	-8.75085
ри	-8.75135
ле	-8.7522
vad	-8.75297
ê	-8.75411
▁autres	-8.75689
▁software	-8.75866
▁training	-8.75872
▁dizer	-8.75876
▁muito	-8.75909
▁про	-8.75912
jo	-8.75986
eg	-8.76043
ine	-8.76065
ம	-8.76163
▁isso	-8.76171
வே	-8.76172
▁ben	-8.76173
▁diese	-8.76186
▁ಮಾಡ	-8.76187
ait	-8.76203
▁pres	-8.76236
▁may	-8.7645
▁gr	-8.7694
ತ	-8.76955
▁programm	-8.77009
▁im	-8.77061
▁vill	-8.77072
▁vara	-8.77174
▁am	-8.77224
app	-8.77375
▁had	-8.77867
ient	-8.78076
igen	-8.78164
mos	-8.78318
π	-8.78492
സ	-8.7853
▁th	-8.78678
ह	-8.79046
▁അതിന	-8.79052
▁situation	-8.79142
▁present	-8.79179
▁fix	-8.79188
är	-8.79195
▁most	-8.79213
twee	-8.79425
▁gra	-8.79522
▁were	-8.79603
மாக	-8.79709
vel	-8.79722
▁которы	-8.80107
ında	-8.80394
rry	-8.80449
ları	-8.80595
▁تم	-8.806
▁dos	-8.8069
▁mer	-8.80809
▁ल	-8.80928
▁site	-8.81072
ем	-8.81082
one	-8.81117
▁editors	-8.81135
▁fl	-8.81211
ha	-8.81218
▁но	-8.8123
ий	-8.81346
ix	-8.81407
▁any	-8.81422
εί	-8.8143
▁ತ	-8.8144
ets	-8.81469
▁exist	-8.81644
ive	-8.81657
▁stor	-8.81895
lors	-8.81905
لي	-8.82067
▁த	-8.82122
தி	-8.82181
lı	-8.82281
ண	-8.82283
ുന്നു	-8.82354
نا	-8.8236
ഹ	-8.8236
ಂತ	-8.82379
▁ಹೇಳ	-8.82422
▁palavra	-8.82425
▁στο	-8.82425
▁नहीं	-8.82425
▁ಇದ	-8.82425
▁britannica	-8.82425
▁natural	-8.82425
▁homme	-8.82426
▁कर	-8.82431
▁μου	-8.82443
λύ	-8.82475
▁été	-8.82508
▁form	-8.82536
ταν	-8.82596
▁va	-8.82658
ذ	-8.82663
то	-8.82726
ول	-8.82753
▁wo	-8.82993
ட்ட	-8.83007
म	-8.83016
▁bra	-8.83047
ட	-8.83071
ssen	-8.83213
ان	-8.84108
▁system	-8.84131
▁hay	-8.84344
нь	-8.84399
▁mean	-8.84536
▁mij	-8.84612
▁fra	-8.84924
де	-8.84976
ப	-8.85098
ft	-8.85272
ಗ	-8.85288
▁δ	-8.85418
▁τη	-8.85645
▁dich	-8.85658
▁culture	-8.85845
ഷ	-8.85873
▁nombre	-8.85873
▁project	-8.85873
▁research	-8.85873
▁വളരെ	-8.85873
▁esempi	-8.85873
▁ni	-8.85896
▁до	-8.85947
min	-8.85951
▁what	-8.86033
▁عن	-8.8604
nte	-8.86175
cia	-8.8625
▁ont	-8.86255
ical	-8.86331
▁ಕ	-8.86365
▁τον	-8.86401
▁ك	-8.86414
ffe	-8.86489
கள	-8.86512
മാണ്	-8.86558
uto	-8.86565
ções	-8.86807
ho	-8.86809
tal	-8.86814
▁bas	-8.87267
▁deze	-8.87504
ır	-8.87752
eurs	-8.8785
▁ved	-8.88007
ica	-8.88057
▁problema	-8.88151
tic	-8.88503
qué	-8.88529
chi	-8.8864
▁под	-8.88699
ren	-8.88862
▁heb	-8.88904
▁സ	-8.89034
▁വി	-8.89151
ave	-8.89224
▁usar	-8.89339
pedia	-8.89362
▁propos	-8.89384
▁உங்கள	-8.89407
ൂ	-8.89432
ब	-8.8944
ё	-8.89444
ф	-8.89445
؟	-8.89445
▁flummox	-8.89445
▁شخص	-8.89445
▁palabra	-8.89445
▁هنا	-8.8945
▁någon	-8.8947
▁där	-8.89511
▁upp	-8.89545
ante	-8.8956
▁terry	-8.89571
▁என்ன	-8.89575
▁को	-8.89613
▁waar	-8.89631
െന്ന്	-8.89689
εις	-8.89723
▁sem	-8.90091
ja	-8.90172
▁അത്	-8.90214
▁autre	-8.90326
▁nummer	-8.90431
▁அத	-8.90492
▁col	-8.90602
▁ج	-8.90618
▁sui	-8.907
nen	-8.90786
ದಲ್ಲಿ	-8.91076
റ	-8.91119
▁ela	-8.9117
för	-8.91262
▁imp	-8.91448
▁projet	-8.91451
▁cre	-8.91582
pen	-8.91583
▁ab	-8.91641
ere	-8.91674
▁ud	-8.91943
▁κ	-8.92034
▁chi	-8.92272
▁vil	-8.92522
▁ä	-8.92541
aba	-8.92705
не	-8.92872
▁term	-8.92949
ائ	-8.93037
ज	-8.9313
▁artificial	-8.93148
▁exemple	-8.93148
▁número	-8.93148
▁même	-8.93149
▁efter	-8.93153
▁உங்களுக்கு	-8.93157
▁revista	-8.93204
endo	-8.93241
▁være	-8.9325
▁لم	-8.93251
▁της	-8.93259
▁otro	-8.93266
▁bij	-8.93272
▁مع	-8.93404
▁cap	-8.93439
▁otra	-8.93481
▁sige	-8.93596
്യ	-8.93795
▁car	-8.9391
bo	-8.9397
▁example	-8.93993
use	-8.94072
رب	-8.9413
ties	-8.94333
▁nell	-8.94369
ди	-8.94388
▁app	-8.94388
هو	-8.94495
▁kl	-8.94791
ón	-8.94991
ц	-8.95036
ാം	-8.95141
ട്ട	-8.95182
sse	-8.95272
ef	-8.95394
▁bro	-8.95655
▁acc	-8.95746
▁hvi	-8.95795
ام	-8.9584
▁tan	-8.95878
▁estado	-8.95912
▁mag	-8.96369
ées	-8.96427
het	-8.96464
▁mon	-8.96509
▁hem	-8.96766
form	-8.96807
cul	-8.96967
gar	-8.96972
ور	-8.96975
▁ejemplo	-8.96995
▁ತುಂಬ	-8.96995
▁earth	-8.96995
▁ذلك	-8.96995
▁något	-8.96998
▁work	-8.96998
▁automatico	-8.96998
▁chose	-8.97022
lijk	-8.97066
▁large	-8.97132
▁oder	-8.97136
▁decir	-8.97136
▁call	-8.97151
▁relat	-8.97231
▁hier	-8.97257
▁outra	-8.97298
ிக்க	-8.97322
▁parola	-8.97486
▁content	-8.97597
ação	-8.97645
tor	-8.978
ién	-8.97841
▁usa	-8.97906
ரி	-8.98322
െങ്കിൽ	-8.98329
▁detta	-8.98383
ച്ച	-8.98413
ces	-8.98547
യിൽ	-8.98629
μ	-8.98666
ini	-8.98783
▁സ്	-8.98797
▁الأ	-8.98886
ма	-8.98886
ano	-8.98894
cht	-8.98925
anto	-8.99269
▁algorithms	-8.99536
▁aux	-9.00042
▁അവ	-9.00095
tive	-9.00096
▁ja	-9.0019
هل	-9.00384
ico	-9.00591
lige	-9.00749
è	-9.00887
ión	-9.00971
ൊ	-9.00975
ாவது	-9.00995
▁können	-9.00995
▁qualcuno	-9.00995
▁στη	-9.00995
▁decision	-9.00995
▁usuário	-9.00995
▁science	-9.00995
▁method	-9.00995
بعض	-9.00995
▁ನನ	-9.00999
tivo	-9.01019
▁также	-9.01029
ешь	-9.01046
▁här	-9.01064
▁την	-9.01141
▁بال	-9.01166
▁sistema	-9.01192
▁quelqu	-9.01234
▁он	-9.01246
res	-9.01374
▁avez	-9.01405
ള	-9.01417
▁säga	-9.01473
ء	-9.01537
▁cent	-9.01677
nne	-9.01687
▁sei	-9.01794
yor	-9.01984
out	-9.0225
ങ്ങള	-9.02262
▁mir	-9.02302
▁cui	-9.02351
▁sido	-9.02392
ure	-9.02409
▁gel	-9.02557
ux	-9.02581
ಗಿ	-9.02683
ണ്ട	-9.02779
ende	-9.02901
▁ele	-9.02948
▁vad	-9.03096
ло	-9.03283
ить	-9.03387
этом	-9.03532
▁ent	-9.03548
▁woord	-9.0359
up	-9.03617
▁dé	-9.03638
бы	-9.0378
▁pr	-9.04043
▁artiklar	-9.04251
ες	-9.04318
▁ces	-9.04409
स	-9.04424
ва	-9.04439
ായ	-9.04708
▁grande	-9.04761
▁cuan	-9.04824
▁sites	-9.04905
▁मु	-9.05011
▁tid	-9.05088
ழ	-9.05129
ഴ	-9.05154
ೀ	-9.05159
▁ಏನ	-9.05161
▁website	-9.05162
▁januar	-9.05163
▁fazer	-9.05163
▁genom	-9.05172
пример	-9.05178
या	-9.05258
▁just	-9.05269
▁cita	-9.05272
▁ശ	-9.05275
▁consider	-9.05282
▁ro	-9.05338
▁how	-9.05457
log	-9.05467
▁moi	-9.05556
ер	-9.05591
▁wa	-9.05592
ono	-9.05776
▁hon	-9.05889
▁ter	-9.05965
ida	-9.05992
▁fond	-9.06119
حت	-9.06148
▁original	-9.06269
ില്ല	-9.06315
его	-9.06317
▁س	-9.06331
▁tout	-9.06409
ный	-9.06594
ായി	-9.06839
لت	-9.07028
▁made	-9.07089
▁الت	-9.07104
னால்	-9.07121
ണം	-9.07165
▁comment	-9.07171
▁res	-9.07253
▁tal	-9.07405
ഗ	-9.07501
▁autor	-9.07708
encia	-9.07771
ದರೆ	-9.07858
▁represent	-9.07958
ச்	-9.08101
ita	-9.08103
tions	-9.08104
ых	-9.08285
▁dar	-9.08445
les	-9.08541
▁мо	-9.08677
▁go	-9.08686
ु	-9.08808
ación	-9.0904
mit	-9.09067
lika	-9.09072
som	-9.0913
▁sch	-9.09132
ന്ന	-9.0916
▁ма	-9.09228
ರೆ	-9.09371
▁lit	-9.09389
▁signifi	-9.09411
श	-9.09427
പ്പ	-9.09451
ಕ್ಕ	-9.09472
▁encyclop	-9.09509
▁alguien	-9.09509
▁alguém	-9.09509
▁exemplo	-9.09509
▁статей	-9.09509
▁ಅಥವಾ	-9.09509
▁från	-9.09509
▁hvor	-9.09511
▁two	-9.09513
▁situa	-9.09513
▁мне	-9.09517
▁place	-9.09519
▁المقالات	-9.09521
▁எனக்கு	-9.09522
zioni	-9.09535
ίνε	-9.09565
▁fantastisk	-9.09576
ciones	-9.09601
▁werd	-9.09628
▁uit	-9.09637
▁question	-9.09659
▁posso	-9.0967
idad	-9.0969
▁así	-9.09948
ый	-9.09973
▁sagen	-9.09993
▁pré	-9.09998
ಗಳ	-9.10076
inde	-9.10135
▁än	-9.10303
▁out	-9.10329
عة	-9.10404
ия	-9.10488
ಕ್	-9.10492
anche	-9.10574
▁activ	-9.10574
land	-9.10608
▁contr	-9.10649
▁ή	-9.10689
ata	-9.10777
▁modo	-9.1086
ите	-9.10869
▁artículo	-9.11121
▁algorithm	-9.11122
ಲ್ಲಿ	-9.11126
▁uso	-9.11201
ther	-9.11467
▁algun	-9.11548
emand	-9.11602
▁leur	-9.11617
കൾ	-9.11737
▁fic	-9.11761
▁quant	-9.11817
dores	-9.11885
ulle	-9.11894
▁contenu	-9.11961
്ര	-9.12022
▁ki	-9.1219
ight	-9.12197
▁работ	-9.12407
▁seh	-9.12454
gue	-9.12496
رس	-9.12499
ее	-9.1252
▁din	-9.12834
▁mod	-9.12883
▁ses	-9.12927
ಬ	-9.13033
▁obtus	-9.1319
ally	-9.13311
يم	-9.13453
ರು	-9.13474
▁give	-9.13639
her	-9.13674
was	-9.13766
▁sam	-9.13795
ord	-9.13904
▁than	-9.13922
ೂ	-9.13943
▁പ്ര	-9.1398
▁при	-9.14022
▁exempel	-9.14055
▁rendezvous	-9.14055
▁τα	-9.14055
▁ಅವಳ	-9.14055
▁എല്ലാ	-9.14055
▁ediciones	-9.14055
▁оче	-9.14055
▁consult	-9.14056
▁tutt	-9.14058
▁когда	-9.1406
▁alcun	-9.14071
▁jemand	-9.14084
▁யார	-9.14102
▁عام	-9.14147
▁wort	-9.14177
▁gör	-9.14284
▁who	-9.14337
▁set	-9.14394
▁εί	-9.14414
▁editores	-9.14415
op	-9.14469
▁का	-9.14551
▁об	-9.14624
يق	-9.14679
▁aber	-9.1469
▁auf	-9.14704
она	-9.1483
▁water	-9.14833
▁ça	-9.14863
▁crea	-9.14877
கு	-9.1488
azione	-9.14995
▁mal	-9.15001
sso	-9.15045
cep	-9.15061
▁ap	-9.15179
▁ama	-9.15201
▁informati	-9.15228
▁ಕೇಳ	-9.15242
▁lu	-9.15374
وم	-9.15377
▁commons	-9.15398
▁normal	-9.15461
ать	-9.15555
▁editor	-9.15645
for	-9.1583
ız	-9.15845
▁von	-9.15972
ಿನ	-9.16167
▁projeto	-9.16189
zo	-9.16211
ente	-9.16417
▁μ	-9.16631
▁act	-9.16662
▁ao	-9.16686
ое	-9.16979
quer	-9.17123
we	-9.17185
▁hun	-9.17324
▁importa	-9.17368
▁uno	-9.17517
dar	-9.17568
▁estar	-9.17642
يل	-9.17663
ber	-9.17729
ജ	-9.1779
▁certain	-9.178
ச்ச	-9.17885
प	-9.18024
لو	-9.18061
δι	-9.18088
ário	-9.18089
aire	-9.18165
σο	-9.18333
▁വ	-9.18569
▁hat	-9.18625
ction	-9.18629
▁considera	-9.18678
ker	-9.18691
ங்க	-9.18747
ನ್ನ	-9.18761
ग	-9.18772
▁aprendizaje	-9.18816
▁conteúdo	-9.18816
▁popular	-9.18816
▁τι	-9.18816
▁ಅವರ	-9.18816
▁class	-9.18817
ುತ್ತೇನೆ	-9.18817
▁così	-9.18817
▁favor	-9.18821
▁somebody	-9.18824
▁ook	-9.18828
ça	-9.18833
▁zeggen	-9.18838
▁edizion	-9.18845
ವಾಗಿ	-9.18847
▁могу	-9.18849
▁во	-9.18911
▁pessoa	-9.19015
▁रह	-9.19016
ೆಯ	-9.19156
▁goed	-9.19247
mak	-9.19278
ως	-9.19343
ous	-9.19369
ων	-9.19446
▁melli	-9.19525
άν	-9.19529
▁porque	-9.19593
റ്റ	-9.19655
ತ್	-9.19707
tori	-9.19799
▁maar	-9.19818
▁bli	-9.19852
▁använd	-9.19884
tag	-9.19888
حق	-9.1993
ಿದ್ದೇನೆ	-9.19953
adas	-9.19994
▁விக்கிப்பீடியா	-9.20083
▁செய்ய	-9.20188
▁deux	-9.20395
ible	-9.2058
▁மு	-9.20754
werk	-9.20804
ില	-9.20882
▁your	-9.21003
ிட	-9.21075
ற்ற	-9.21214
ton	-9.215
டு	-9.2175
und	-9.21839
ого	-9.21983
بر	-9.22328
ycke	-9.22343
▁text	-9.22454
▁ചെയ്യ	-9.22462
▁result	-9.23
▁ot	-9.23115
▁bin	-9.23212
யும்	-9.23277
por	-9.23331
rade	-9.23348
▁ко	-9.23499
▁அதை	-9.23554
▁mor	-9.23562
empre	-9.23601
▁learn	-9.23642
வி	-9.23663
▁tend	-9.23693
போது	-9.23798
▁இருந்த	-9.23807
ظ	-9.23814
ೊ	-9.23814
औ	-9.23816
▁surface	-9.23816
▁över	-9.23816
▁मैं	-9.23816
▁ಒಂದ	-9.23816
▁anglais	-9.23817
▁world	-9.23817
▁ಯಾರ	-9.23817
▁für	-9.23818
▁раз	-9.23818
▁permett	-9.2382
▁الذي	-9.23823
▁gli	-9.23828
▁iyi	-9.23834
▁compar	-9.23834
▁well	-9.23837
▁environment	-9.23848
▁الإنجليزية	-9.23851
▁propri	-9.23867
▁limit	-9.23878
▁casa	-9.2391
▁से	-9.23935
▁വിക്കിപീഡിയയ	-9.23945
▁estaba	-9.24099
μαι	-9.24101
▁found	-9.24189
شكل	-9.24253
▁administra	-9.24274
кто	-9.24276
▁entend	-9.24311
▁momento	-9.24425
ск	-9.24442
▁tipo	-9.24468
▁forme	-9.24533
▁mil	-9.24564
▁rules	-9.24683
bra	-9.24684
▁ε	-9.24689
pro	-9.24737
▁sub	-9.24891
▁lui	-9.24995
cio	-9.2504
▁вам	-9.25134
سا	-9.25144
▁tar	-9.25267
اب	-9.25357
nda	-9.25449
▁مر	-9.25535
▁നിങ്ങള	-9.25598
ثر	-9.25624
▁vol	-9.2594
▁hast	-9.25946
▁tiene	-9.26253
▁image	-9.26259
▁bot	-9.26266
▁make	-9.26289
ைக்	-9.26292
ವು	-9.26409
▁caso	-9.26662
ന്നു	-9.26892
▁hav	-9.26931
per	-9.26991
▁narcis	-9.26992
▁pl	-9.27218
▁kon	-9.27267
insi	-9.27462
ತಿ	-9.27506
tà	-9.27594
idade	-9.27807
ire	-9.27821
▁way	-9.27847
▁user	-9.27942
chen	-9.27977
▁väl	-9.28059
ದ್ದ	-9.28112
▁bon	-9.28163
▁ни	-9.2823
ú	-9.28275
▁تع	-9.28313
vid	-9.28379
▁compl	-9.28521
▁continue	-9.28559
▁έχε	-9.28638
pri	-9.28667
കള	-9.28698
▁quelque	-9.28774
ಹ	-9.28872
को	-9.28884
▁critic	-9.29016
ñ	-9.29031
▁χρησιμοποι	-9.2908
ô	-9.2908
झ	-9.2908
ू	-9.2908
ொரு	-9.2908
▁scientific	-9.2908
▁сказать	-9.2908
▁ಬಗ್ಗೆ	-9.2908
च	-9.2908
▁because	-9.2908
▁would	-9.29082
▁negativ	-9.29083
▁вас	-9.29084
▁marian	-9.29087
▁identifi	-9.29088
▁κάτι	-9.29096
▁lugar	-9.29099
▁amigo	-9.291
▁sitio	-9.29109
ಯೂ	-9.29113
▁статьи	-9.29147
▁സ്വ	-9.29152
ncip	-9.29184
▁where	-9.29197
▁få	-9.292
▁esper	-9.29225
▁tempo	-9.29226
▁global	-9.29273
▁defin	-9.29304
ædi	-9.29306
▁plant	-9.29343
ರ್	-9.29348
bili	-9.29494
ക്കാ	-9.2956
يك	-9.29572
▁noget	-9.29619
ಿಲ್ಲ	-9.29655
▁vista	-9.29715
▁good	-9.29887
▁nogen	-9.29929
▁disse	-9.30071
▁hur	-9.30092
▁org	-9.30258
came	-9.30259
▁mat	-9.30263
▁sat	-9.30406
igt	-9.3044
لة	-9.30469
▁art	-9.30547
με	-9.30558
each	-9.30639
▁zou	-9.30663
▁intelligent	-9.30719
ons	-9.30771
uz	-9.30777
▁naar	-9.30784
ются	-9.31106
ide	-9.31127
lon	-9.31187
ത്തിന്	-9.31217
ετε	-9.31228
ος	-9.31285
▁yo	-9.31291
▁mill	-9.31337
gel	-9.31487
ഭ	-9.3149
ку	-9.31491
▁dem	-9.31497
▁eso	-9.31557
▁prim	-9.31649
▁artigo	-9.31694
▁suo	-9.31713
▁hoe	-9.31989
nder	-9.31998
▁meu	-9.32088
▁sich	-9.32194
عمل	-9.3224
റി	-9.32245
ries	-9.3254
ता	-9.32679
▁ബ	-9.32712
▁använda	-9.32777
▁tell	-9.32841
ಲ್ಲ	-9.32846
▁vandalism	-9.32903
бо	-9.32906
▁funda	-9.33025
▁ago	-9.33065
ುವ	-9.33186
щ	-9.33298
▁kelime	-9.33364
▁artikel	-9.33465
▁അത	-9.33507
▁со	-9.33537
▁include	-9.33885
arak	-9.33956
▁mots	-9.34035
▁ska	-9.34172
μο	-9.34392
ൈ	-9.34596
ige	-9.34604
ência	-9.34627
▁прав	-9.34629
▁histori	-9.34631
▁явля	-9.34635
▁knowledge	-9.34635
▁política	-9.34635
▁usuarios	-9.34635
▁αλλά	-9.34635
▁проект	-9.34635
▁எப்படி	-9.34635
▁ನೋಡ	-9.34635
▁അല്ലെങ്കിൽ	-9.34635
▁меня	-9.34635
▁something	-9.34635
▁edições	-9.34635
▁mobile	-9.34636
▁mediawiki	-9.34637
▁another	-9.34637
▁input	-9.34638
▁σημα	-9.34638
▁ಹೇಳಬಹುದು	-9.34641
▁сво	-9.34641
▁numero	-9.34652
▁hij	-9.34653
abilir	-9.34664
▁അവൾ	-9.34669
phone	-9.34684
▁essen	-9.34696
▁habe	-9.34723
▁பயன்படுத்த	-9.34736
ئ	-9.34753
▁donné	-9.34758
▁free	-9.34765
▁perform	-9.34785
▁عند	-9.34813
▁när	-9.34842
veral	-9.34871
▁pela	-9.3492
ρι	-9.34934
▁daha	-9.3496
apena	-9.35046
ಗು	-9.35049
▁distribu	-9.35112
▁essa	-9.35117
▁يت	-9.35153
▁cada	-9.35178
чем	-9.35369
▁door	-9.35405
▁final	-9.35493
ங்கள்	-9.35515
▁प	-9.35523
ron	-9.356
dir	-9.35623
▁webb	-9.35653
யில்	-9.35846
▁waren	-9.35847
ச	-9.35975
▁liv	-9.36067
ിരിക്ക	-9.36134
λι	-9.36184
▁أنه	-9.36206
മായി	-9.36258
ല്ല	-9.36267
▁hebt	-9.36348
▁via	-9.36407
тельно	-9.36567
▁both	-9.36575
klar	-9.36848
▁hu	-9.36852
▁correct	-9.36938
ന്ന്	-9.37061
▁кон	-9.37289
ità	-9.37381
▁ಜ	-9.37649
bile	-9.37665
▁déc	-9.3768
▁images	-9.37821
bar	-9.3848
▁म	-9.385
eld	-9.38505
▁apr	-9.38507
▁fal	-9.38592
σε	-9.38631
▁total	-9.38646
▁ح	-9.38646
க்கு	-9.38696
▁much	-9.38901
tamente	-9.39062
▁hab	-9.39092
▁serv	-9.39109
cc	-9.39261
▁continu	-9.39275
▁vari	-9.39389
enza	-9.39402
سي	-9.39595
▁وت	-9.39794
لقد	-9.39909
رة	-9.39979
▁meer	-9.40131
ப்பட	-9.40184
iel	-9.4023
bl	-9.40351
▁visa	-9.40357
tiva	-9.40425
▁ലേഖന	-9.40504
▁kullan	-9.40512
ट	-9.40517
▁gerçek	-9.40517
क्या	-9.40518
▁different	-9.40518
▁inteligente	-9.40518
▁particular	-9.40518
▁proyecto	-9.40518
▁أخرى	-9.40518
ಶ	-9.40518
▁കാണ	-9.40518
▁terrence	-9.40518
▁develop	-9.40518
▁study	-9.40519
▁years	-9.40519
▁perché	-9.40519
डिय	-9.40521
▁gentil	-9.40522
▁πείτε	-9.40529
▁point	-9.40533
though	-9.40536
ீர்கள்	-9.40543
▁تقول	-9.40564
▁fue	-9.40582
▁animal	-9.40605
▁bland	-9.40606
▁want	-9.40611
▁zin	-9.40627
▁cover	-9.40666
▁let	-9.40668
ast	-9.4067
▁pal	-9.40671
▁mundo	-9.40732
▁cri	-9.40745
ble	-9.40756
▁refer	-9.40807
▁long	-9.40845
▁far	-9.40887
ero	-9.40976
▁weet	-9.41016
▁loro	-9.41031
▁fo	-9.411
▁bara	-9.41121
▁partir	-9.41162
ுக்கு	-9.41193
iques	-9.41208
▁his	-9.41306
▁includ	-9.41321
▁эти	-9.41322
▁слово	-9.41366
▁yap	-9.41493
tid	-9.4154
▁segu	-9.41593
▁pos	-9.41809
ുവ	-9.41827
का	-9.41943
dat	-9.42072
▁sia	-9.42177
▁sh	-9.42221
▁mell	-9.42297
▁cit	-9.4232
▁got	-9.42322
▁sind	-9.42344
let	-9.42412
▁grand	-9.42435
▁material	-9.42482
▁kar	-9.42599
ext	-9.42687
▁trop	-9.42824
▁liber	-9.42882
▁مثل	-9.42933
ario	-9.42982
rar	-9.43093
leri	-9.43194
▁komme	-9.43524
▁sag	-9.43661
▁ir	-9.43708
erat	-9.43708
▁നി	-9.44133
ına	-9.44143
▁utilis	-9.44427
▁tema	-9.44642
▁vario	-9.44786
â	-9.45323
▁οι	-9.45327
دي	-9.45551
▁entr	-9.45603
▁into	-9.45647
mek	-9.45736
▁univers	-9.45788
▁second	-9.45895
ിക്ക	-9.45921
льно	-9.45923
▁которо	-9.45993
▁daar	-9.46281
▁gebruik	-9.46347
ேன்	-9.46375
ூ	-9.46562
▁viel	-9.46633
▁τό	-9.46707
▁bias	-9.46708
ocks	-9.4672
lik	-9.4672
ക്ഷ	-9.46732
ீ	-9.46742
▁प्र	-9.46755
ಭ	-9.46767
ೌ	-9.46767
▁മലയാള	-9.46767
▁страниц	-9.46768
▁ಅದ್ಭುತ	-9.46768
▁depuis	-9.46768
▁numér	-9.46768
▁produce	-9.46768
▁ನಿಜವಾ	-9.46768
▁utiliza	-9.46768
başka	-9.46768
μην	-9.46769
▁यह	-9.46769
▁कह	-9.4677
▁über	-9.46772
▁qualcos	-9.46774
▁multi	-9.46774
▁fatto	-9.46776
▁zaman	-9.46776
▁svensk	-9.4678
▁inglés	-9.46798
▁കഴിയും	-9.46808
eur	-9.46815
▁κάποιος	-9.46831
tijd	-9.46915
ते	-9.46965
▁sorry	-9.46968
▁computer	-9.46969
round	-9.4697
▁job	-9.47011
▁gut	-9.47022
gång	-9.47041
▁since	-9.4706
▁monde	-9.47065
▁portal	-9.47098
▁rock	-9.47106
▁том	-9.47143
▁universit	-9.47213
▁artikelen	-9.47252
▁metod	-9.47265
▁super	-9.47325
▁vie	-9.47327
▁menos	-9.47337
▁cosa	-9.47378
segú	-9.47414
▁idea	-9.47423
▁nej	-9.4753
▁cert	-9.47551
ನಿ	-9.47592
▁partie	-9.47597
ண்ட	-9.47722
▁olduğun	-9.47754
ated	-9.47767
▁vot	-9.47937
spect	-9.47954
▁anti	-9.47956
dır	-9.48003
▁obtuso	-9.48009
▁ihre	-9.48049
▁verb	-9.4812
ение	-9.48169
وي	-9.48173
▁deve	-9.48201
പാ	-9.48227
▁existe	-9.48363
▁páginas	-9.48453
▁spe	-9.48463
جب	-9.48481
▁κα	-9.48496
▁tant	-9.48734
مل	-9.48796
▁apprentissage	-9.48948
▁oro	-9.48981
▁bem	-9.49029
gem	-9.49054
▁franc	-9.49072
▁lang	-9.49152
▁κάνει	-9.49169
ах	-9.49287
▁നിന്ന	-9.49438
▁fare	-9.49591
▁bom	-9.49609
▁kunne	-9.49615
▁encontr	-9.49794
▁إن	-9.49944
ura	-9.4996
▁dette	-9.50328
രം	-9.50399
▁eles	-9.50584
σα	-9.50621
▁şey	-9.50631
ത്തിന	-9.50643
▁أك	-9.50658
kke	-9.50694
ನೆ	-9.50695
nın	-9.50791
ία	-9.50802
ುತ್ತೀರಿ	-9.50837
▁ಟ	-9.5091
antes	-9.50913
▁fler	-9.51177
ço	-9.51284
சி	-9.51442
ாத	-9.51466
ுக்க	-9.51473
▁ban	-9.51627
▁list	-9.51638
rik	-9.51691
ना	-9.51709
ться	-9.51854
▁divers	-9.51897
▁examples	-9.5191
▁वि	-9.51941
▁same	-9.51963
▁law	-9.51979
му	-9.52006
قل	-9.52078
ερ	-9.52104
▁ku	-9.52115
▁reco	-9.52135
▁wil	-9.52214
ದು	-9.52332
quel	-9.52342
στε	-9.52422
▁siz	-9.5252
▁كل	-9.52832
▁premi	-9.52863
▁சொல்	-9.52966
äll	-9.52976
▁being	-9.52993
وف	-9.53016
▁even	-9.53019
▁ചില	-9.534
மான	-9.53408
ೋ	-9.53413
ами	-9.53424
▁നാർസിസ	-9.53434
voorbeeld	-9.53434
только	-9.53434
क्त	-9.53434
▁betekent	-9.53434
▁communauté	-9.53434
▁différent	-9.53434
▁pregunta	-9.53434
▁through	-9.53434
▁ആര	-9.53434
ई	-9.53434
▁analyse	-9.53434
▁youtube	-9.53434
▁விரும்ப	-9.53434
▁participa	-9.53434
▁similar	-9.53435
▁atroce	-9.53436
▁சில	-9.53436
▁utenti	-9.53437
▁conversa	-9.53442
▁neural	-9.53443
محتو	-9.53444
வில்லை	-9.53446
തന്നെ	-9.53446
▁جيد	-9.5345
▁blev	-9.53451
▁automatique	-9.53452
▁ಹೇಗೆ	-9.53455
zelf	-9.53455
▁access	-9.53458
▁ligne	-9.53459
▁langue	-9.53461
ujour	-9.53461
▁wide	-9.53468
▁επι	-9.53479
▁agu	-9.53488
▁gibi	-9.53495
▁хорошо	-9.53509
െങ്കിലു	-9.53517
▁ten	-9.53518
مة	-9.53524
ಿದೆ	-9.53546
▁stop	-9.53596
▁этого	-9.53633
▁reported	-9.53657
▁voce	-9.53691
▁då	-9.53695
вид	-9.53719
ότε	-9.5373
▁american	-9.53766
▁dici	-9.53814
σι	-9.53943
position	-9.5399
sche	-9.54004
ologi	-9.54032
▁latin	-9.54062
▁parol	-9.54067
▁språk	-9.54087
▁jun	-9.54128
houd	-9.5414
▁estava	-9.54235
▁lento	-9.54241
▁इस	-9.5429
aria	-9.54372
▁هي	-9.54377
▁geh	-9.5441
çon	-9.54429
▁naturel	-9.54558
▁മാ	-9.5462
artiklar	-9.54756
▁tutti	-9.54774
ഡ	-9.54792
▁certaine	-9.54973
pass	-9.54996
ρο	-9.54999
ных	-9.55064
▁слова	-9.55169
▁sto	-9.55279
▁nous	-9.5544
▁vilke	-9.5548
avver	-9.55543
▁പോക	-9.55763
ೊಂದಿ	-9.5579
യ്	-9.55891
ർത്ത	-9.55968
▁dag	-9.56013
▁personne	-9.56067
▁bene	-9.56125
▁sätt	-9.56126
▁echt	-9.56131
▁други	-9.56273
στα	-9.56357
▁വാ	-9.56542
ibi	-9.56661
нов	-9.56724
▁open	-9.56741
ಾಗಿ	-9.56754
تك	-9.56808
υς	-9.56904
സം	-9.56915
ண்	-9.56946
്റ	-9.57007
ие	-9.57108
دم	-9.57235
pé	-9.57261
▁realizad	-9.573
zien	-9.57323
dade	-9.5734
▁hui	-9.57352
▁sai	-9.57391
மை	-9.57515
▁god	-9.57538
▁feature	-9.57542
▁contribu	-9.57557
dag	-9.57593
▁друг	-9.57615
▁hey	-9.57671
dur	-9.57791
▁corre	-9.57913
rse	-9.58127
οι	-9.58176
ateur	-9.58306
▁media	-9.58365
▁tom	-9.58596
média	-9.5865
▁nach	-9.58692
▁seni	-9.58714
▁göra	-9.58715
▁pens	-9.5911
യി	-9.59176
hal	-9.5933
cour	-9.59342
ದ್ದರ	-9.59397
ness	-9.59485
▁moment	-9.59716
▁comun	-9.59727
ച്ച്	-9.59751
▁säg	-9.59774
▁direct	-9.59784
nız	-9.59798
ever	-9.60197
▁ഇത	-9.60385
▁modifica	-9.60387
▁modifi	-9.6039
tura	-9.60401
ಿಸಿ	-9.605
μί	-9.60502
भ	-9.60575
▁experi	-9.60576
ì	-9.60576
▁skriv	-9.60576
▁использу	-9.60577
छ	-9.60577
▁bedeutet	-9.60577
▁enciclopédia	-9.60577
▁preocupe	-9.60577
▁specific	-9.60577
▁stör	-9.60577
▁sætning	-9.60577
▁vraiment	-9.60577
▁yüz	-9.60577
▁означает	-9.60577
▁участник	-9.60577
▁хоч	-9.60577
▁நன்றி	-9.60577
▁ഇംഗ്ലീഷ	-9.60577
▁നന്ദി	-9.60577
ೈ	-9.60577
تعديل	-9.60577
▁writ	-9.60577
▁micro	-9.60578
▁humain	-9.60579
▁сайт	-9.60579
▁atroz	-9.60579
▁document	-9.60579
▁great	-9.6058
▁engelskspråkig	-9.60581
▁student	-9.60583
▁inglese	-9.60586
▁அவள	-9.60587
▁ലേഖനങ്ങള	-9.60592
▁contenido	-9.60597
▁καθ	-9.60597
▁reference	-9.60599
▁åh	-9.60612
லாம்	-9.60623
▁теб	-9.60623
▁could	-9.60628
▁altın	-9.6064
ática	-9.60644
غير	-9.60645
▁വേ	-9.60656
▁grund	-9.60664
book	-9.60665
ಟ್	-9.60669
▁madre	-9.60704
▁faire	-9.60712
▁ме	-9.60715
▁start	-9.60737
▁lavor	-9.60775
van	-9.60776
llo	-9.60825
kommen	-9.60888
▁modification	-9.60925
ട്ട്	-9.60954
▁after	-9.60972
▁bidrag	-9.60984
▁quello	-9.61017
▁punto	-9.61123
▁view	-9.6115
ές	-9.61213
▁cela	-9.6129
▁име	-9.61322
▁kind	-9.61474
▁avant	-9.61542
aram	-9.61681
▁الس	-9.61769
▁server	-9.61774
the	-9.61795
▁opera	-9.61823
gan	-9.61839
▁prat	-9.61895
▁utilisé	-9.61959
يف	-9.61973
ले	-9.62017
ட்	-9.62025
▁voir	-9.62159
isme	-9.62161
ുന്നത്	-9.6233
iyor	-9.62342
ബ്	-9.62467
▁help	-9.62569
▁she	-9.62669
embre	-9.62671
▁trav	-9.62714
രാ	-9.62756
▁går	-9.62833
supervised	-9.62903
▁mucho	-9.62959
▁changes	-9.62989
▁πρ	-9.62999
▁importante	-9.63059
ಮ	-9.6317
ría	-9.63198
▁أي	-9.6322
▁لك	-9.63418
▁quali	-9.63543
▁شي	-9.63569
еб	-9.63728
زا	-9.63851
▁toda	-9.63947
▁create	-9.63979
▁fonte	-9.64093
▁rein	-9.64195
▁cor	-9.64279
▁mest	-9.64333
▁الف	-9.64538
quelle	-9.64692
▁alguna	-9.64704
wel	-9.64758
ലി	-9.64775
cak	-9.64805
▁grad	-9.65029
ಿಗೆ	-9.65168
യാണ്	-9.65406
ുണ്ട്	-9.65468
▁pesquisa	-9.65526
они	-9.65542
▁ask	-9.6566
rá	-9.65736
▁fou	-9.65758
ത്തെ	-9.65771
▁stupendo	-9.65819
ны	-9.65953
▁maior	-9.65967
gna	-9.65973
äng	-9.66029
ств	-9.66035
▁conta	-9.66199
▁origin	-9.66224
▁λέ	-9.66224
ily	-9.66314
▁നല്ല	-9.664
த்து	-9.66426
▁type	-9.66495
▁program	-9.66511
▁name	-9.66622
▁ihr	-9.66715
idas	-9.66735
▁έχ	-9.66768
▁mach	-9.6687
▁fri	-9.66937
ben	-9.67306
வு	-9.67363
▁gå	-9.67495
eza	-9.67515
▁bunu	-9.67538
்ட	-9.6755
ிற	-9.67635
▁toute	-9.67674
▁ಬಳಸ	-9.67708
uel	-9.67782
dad	-9.67807
▁gener	-9.67841
ınız	-9.67921
izi	-9.67974
ित	-9.68048
▁accord	-9.68059
ude	-9.68059
▁குற	-9.68111
▁நி	-9.6813
▁συ	-9.68136
▁οπ	-9.68154
வை	-9.68186
ость	-9.6819
▁सकत	-9.68197
▁san	-9.68217
▁வேலை	-9.68256
▁journal	-9.68258
فضل	-9.68264
ड	-9.68264
டன்	-9.68267
عبارة	-9.68269
फ	-9.68269
”	-9.68269
▁algoritmo	-9.68269
▁application	-9.68269
▁artikler	-9.68269
▁français	-9.68269
▁linguistique	-9.68269
▁trabajo	-9.68269
▁vriend	-9.68269
▁würde	-9.68269
▁δουλειά	-9.68269
▁вопрос	-9.68269
▁сервер	-9.68269
▁இல்லை	-9.68269
▁நன்றாக	-9.68269
▁நல்ல	-9.68269
▁ಅವನ	-9.68269
▁ഉദാഹരണ	-9.68269
كثير	-9.68269
ൺ	-9.68269
▁people	-9.68269
طريق	-9.6827
▁arbete	-9.6827
▁alexa	-9.6827
▁verwende	-9.6827
▁notamment	-9.6827
▁support	-9.6827
▁கேட்க	-9.6827
▁among	-9.68271
▁concern	-9.68271
ograph	-9.68271
▁intelligence	-9.68271
▁friend	-9.68271
▁mesmo	-9.68272
▁require	-9.68272
▁estupend	-9.68272
▁national	-9.68272
▁हो	-9.68272
▁neuron	-9.68272
▁accept	-9.68273
▁विकिप	-9.68273
▁volunt	-9.68274
▁ولكن	-9.68276
▁മറ്റൊ	-9.68277
▁की	-9.68277
▁community	-9.68278
▁social	-9.68286
್ರಿ	-9.68288
mesi	-9.68291
▁anlam	-9.68295
ப்போது	-9.68299
▁année	-9.683
▁look	-9.683
▁field	-9.68301
▁rivist	-9.68306
െക്കുറിച്ച്	-9.68309
▁información	-9.6831
idée	-9.68311
▁region	-9.68313
▁manier	-9.68313
▁finns	-9.68324
رائع	-9.68334
▁estudo	-9.68345
▁beau	-9.6835
semble	-9.68362
▁technique	-9.68363
▁statistica	-9.68371
▁വിക്കിപീഡിയർ	-9.68374
▁கட்டுரைகள	-9.68375
▁وي	-9.68386
▁συν	-9.68397
▁embar	-9.68416
▁cool	-9.68428
▁enorm	-9.68449
وس	-9.68479
▁doen	-9.68506
endant	-9.68508
▁according	-9.68511
▁describe	-9.68513
▁способ	-9.68544
▁soru	-9.68544
ണമ	-9.68585
▁år	-9.68595
▁pelo	-9.68596
▁hakkında	-9.68605
▁enkel	-9.68606
▁бе	-9.68645
اك	-9.68664
▁செய்	-9.68689
▁sv	-9.6874
▁utiliser	-9.68784
▁going	-9.68801
▁tip	-9.68839
▁ofta	-9.68867
ಗಳು	-9.68913
self	-9.68954
▁dessa	-9.69012
ива	-9.69053
ию	-9.69063
бр	-9.69076
▁editing	-9.69114
▁عل	-9.69132
versi	-9.69151
ள்	-9.69271
▁الا	-9.694
▁vári	-9.69476
▁avai	-9.69796
▁bruge	-9.69819
ар	-9.69854
сти	-9.69856
ാവ	-9.69859
▁editions	-9.69882
▁annat	-9.69915
▁condi	-9.70051
vå	-9.70059
ليس	-9.70073
▁organiza	-9.70094
aux	-9.70103
▁ora	-9.70154
▁gaa	-9.70163
لك	-9.70304
▁dal	-9.70367
lbert	-9.7043
▁space	-9.70506
ಯಲ್ಲಿ	-9.70603
▁jul	-9.7073
▁alto	-9.70748
llen	-9.70788
way	-9.70792
siniz	-9.70881
▁side	-9.71104
▁mus	-9.71253
▁haar	-9.71264
▁colabora	-9.71441
▁event	-9.71558
مد	-9.716
ായിരുന്നു	-9.71634
ture	-9.71712
▁degli	-9.7179
▁concept	-9.71862
▁ru	-9.72021
uta	-9.72028
▁moet	-9.72044
▁stato	-9.72079
imes	-9.72145
வில்	-9.72184
▁lent	-9.7222
ாட	-9.72229
▁pan	-9.72295
▁varie	-9.72298
▁sabe	-9.72554
ಳೆ	-9.72626
vam	-9.72639
كل	-9.72689
zza	-9.72718
▁later	-9.73225
vær	-9.73291
ок	-9.73502
▁ingl	-9.73644
اً	-9.7384
▁modelo	-9.73916
മോ	-9.74065
▁unit	-9.74081
▁stu	-9.74128
▁intelligente	-9.74143
ോട്	-9.74236
nner	-9.74238
வர்	-9.74407
▁நா	-9.74547
▁προ	-9.75004
лю	-9.75031
▁يع	-9.75286
änd	-9.75349
▁vu	-9.75393
▁hand	-9.75672
ения	-9.75786
▁ay	-9.75877
▁devi	-9.7593
▁όλ	-9.75954
cción	-9.76034
ые	-9.76127
нача	-9.76143
lmente	-9.76144
ಚ	-9.76342
▁complex	-9.76429
▁source	-9.76447
ντα	-9.76529
guard	-9.76539
▁take	-9.76558
▁collabora	-9.76589
▁söyle	-9.76603
▁τρ	-9.76603
börja	-9.76603
പ്പെട്ട	-9.76603
▁registra	-9.76603
▁φίλο	-9.76603
▁ஒன்ற	-9.76603
▁நினை	-9.76603
▁ತಾಯಿ	-9.76603
beispiel	-9.76603
إصلاح	-9.76603
طلب	-9.76603
“	-9.76603
▁alguma	-9.76603
▁arbejde	-9.76603
▁cümle	-9.76603
▁grazie	-9.76603
▁melhor	-9.76603
▁τώρα	-9.76603
▁υπέροχ	-9.76603
▁должн	-9.76603
▁себя	-9.76603
▁ಈಗ	-9.76603
▁climate	-9.76603
▁cualquier	-9.76603
▁grymt	-9.76603
▁impact	-9.76603
▁tiempo	-9.76603
▁innehåll	-9.76603
▁wäre	-9.76603
▁septemb	-9.76603
▁travail	-9.76604
▁edição	-9.76604
▁contributeurs	-9.76604
ಮ್ಮ	-9.76604
▁inspir	-9.76604
▁again	-9.76604
▁году	-9.76604
▁manière	-9.76605
കരമായ	-9.76605
▁objet	-9.76605
▁determin	-9.76606
▁show	-9.76606
▁மேல	-9.76607
▁remain	-9.76608
species	-9.76608
▁regard	-9.76608
▁topic	-9.76609
▁slim	-9.76612
▁εκ	-9.76612
▁positiv	-9.76612
grupp	-9.76613
▁ಸ್ವ	-9.76613
പ്പോഴ	-9.76613
▁outros	-9.76615
▁link	-9.76621
▁modern	-9.76624
▁வேண்டும்	-9.76628
▁já	-9.76629
▁extra	-9.76629
▁keine	-9.76631
ாள்	-9.76635
▁repeti	-9.76644
▁rendez	-9.76644
ಂದರೆ	-9.76645
▁allow	-9.76652
▁veya	-9.7666
▁simpl	-9.76685
▁पर	-9.76687
▁visita	-9.76688
▁controver	-9.76702
മ്പ	-9.76702
▁നിങ്ങളെ	-9.76702
▁qualité	-9.76705
ಂತೆ	-9.76721
чно	-9.76749
▁пере	-9.7675
▁pouc	-9.7677
▁tack	-9.76802
▁அந்த	-9.76803
κό	-9.76831
ήσετε	-9.76846
бу	-9.76846
▁embo	-9.76859
▁العمل	-9.76865
▁permit	-9.76872
▁بين	-9.76917
label	-9.76922
قط	-9.76926
كيف	-9.76962
ός	-9.77012
▁nå	-9.77046
▁biases	-9.77093
▁άλλο	-9.77111
▁narcisse	-9.77129
▁syn	-9.77151
சொல்ல	-9.77172
▁gebruiken	-9.77184
ذهب	-9.7719
sammen	-9.77194
factor	-9.77278
يد	-9.77312
▁plu	-9.77321
▁trabalho	-9.77324
▁måde	-9.77379
▁modell	-9.77502
▁vuo	-9.77519
▁нет	-9.77599
▁datos	-9.77697
்ப	-9.777
▁θέλε	-9.77747
▁يا	-9.77798
▁användare	-9.77819
▁poli	-9.77829
ξ	-9.77846
رق	-9.77863
vece	-9.78017
▁ин	-9.78121
▁day	-9.78135
▁comunidade	-9.78192
▁engelsk	-9.782
▁sein	-9.7821
unda	-9.78225
▁redigera	-9.78333
▁error	-9.78343
▁haben	-9.78473
ற்கு	-9.7851
قول	-9.7852
ssim	-9.78646
▁technolog	-9.78771
▁esse	-9.78798
▁sull	-9.78868
▁nome	-9.78909
ார்	-9.78938
▁indica	-9.78946
▁import	-9.78976
▁now	-9.79008
uv	-9.79021
lerin	-9.79132
låt	-9.79142
تريد	-9.79325
того	-9.79414
ggio	-9.79496
▁rep	-9.79651
ду	-9.79722
yla	-9.7974
ಟ	-9.79743
ுள்ள	-9.79808
▁conse	-9.79819
ки	-9.79866
woorden	-9.79923
richt	-9.79973
▁denk	-9.80096
▁sans	-9.80155
▁observa	-9.80169
▁features	-9.80286
▁sup	-9.80302
▁oc	-9.80315
hand	-9.80463
erano	-9.80591
нных	-9.80664
train	-9.80679
ili	-9.81076
ward	-9.81134
εύ	-9.81225
اف	-9.81257
▁ang	-9.81387
▁olma	-9.81878
▁usare	-9.81971
ത്ര	-9.82002
▁cell	-9.82305
▁sak	-9.8237
▁aver	-9.82447
▁wik	-9.82556
▁change	-9.8263
▁informa	-9.82677
▁ingen	-9.82723
്യാ	-9.82816
vant	-9.82981
▁fir	-9.83103
▁hade	-9.83258
gger	-9.83268
▁expe	-9.83533
ние	-9.83597
ാത്ത	-9.83598
λά	-9.83605
ной	-9.83611
▁buon	-9.83745
▁auto	-9.83851
amento	-9.8393
▁bruger	-9.83955
ным	-9.84058
▁tradition	-9.84172
किस	-9.84314
prendre	-9.84389
രെ	-9.84416
ful	-9.84435
nı	-9.84544
▁puis	-9.84775
ult	-9.84785
▁ಕೆಲಸ	-9.85027
▁пла	-9.85099
из	-9.85128
ρί	-9.8528
▁serai	-9.85292
▁gold	-9.853
▁neutral	-9.85382
▁report	-9.85398
▁açı	-9.85412
ಿಗ	-9.85495
gelijk	-9.85542
▁அவர்	-9.85605
▁μπορεί	-9.85637
ಣ	-9.85685
ध	-9.85687
ങ്ക	-9.85688
▁സമ	-9.85693
▁enqu	-9.85693
▁பெற	-9.85693
ಧ	-9.85693
ؤ	-9.85694
▁журнал	-9.85694
▁ഇപ്പോ	-9.85694
▁പ്രശ്	-9.85694
مشروع	-9.85694
معلومات	-9.85694
ವಾಗಿದೆ	-9.85694
▁akıllı	-9.85694
▁atrocious	-9.85694
▁automático	-9.85694
▁cluster	-9.85694
▁employ	-9.85694
▁español	-9.85694
▁hög	-9.85694
▁idiomas	-9.85694
▁maintenant	-9.85694
▁review	-9.85694
▁swamp	-9.85694
▁некоторы	-9.85694
▁آسف	-9.85694
▁نيوبيديا	-9.85694
▁உதவ	-9.85694
▁ಓಹ್	-9.85694
▁ഇല്ല	-9.85694
▁കൂടുത	-9.85694
▁carrua	-9.85694
▁grausam	-9.85694
▁höfli	-9.85694
▁pergunta	-9.85694
▁جدًا	-9.85694
▁diferente	-9.85694
▁ihnen	-9.85694
▁increase	-9.85694
▁τρόπο	-9.85694
▁vrij	-9.85694
▁ويكي	-9.85694
▁miglior	-9.85694
▁nästa	-9.85694
▁freund	-9.85694
▁high	-9.85696
▁hvilke	-9.85697
▁extrem	-9.85697
▁dvd	-9.85697
▁año	-9.85698
▁secret	-9.85699
▁atrav	-9.85699
▁disponible	-9.85699
▁mamma	-9.85699
▁എന്തെങ്കിലു	-9.85699
▁europ	-9.85701
▁sujet	-9.85705
▁actual	-9.85708
▁kannst	-9.8571
▁brea	-9.85712
▁बार	-9.85716
▁générale	-9.85717
▁precis	-9.8572
▁sotto	-9.85721
▁classification	-9.85723
▁käll	-9.85726
▁αγ	-9.85726
▁collect	-9.85727
▁extens	-9.85728
▁حول	-9.85728
▁pays	-9.85739
inkel	-9.85751
▁мы	-9.85752
▁move	-9.85755
▁είσ	-9.85757
മാർ	-9.85771
्स	-9.85775
▁muita	-9.85777
▁morgen	-9.85781
▁zit	-9.85785
▁minute	-9.85789
tür	-9.85789
ível	-9.85795
موسوعة	-9.85818
гда	-9.85819
▁revis	-9.8583
▁interest	-9.85874
tuso	-9.85902
▁logic	-9.85924
▁merci	-9.8597
▁geç	-9.85988
▁ست	-9.85994
temps	-9.86002
▁percent	-9.86013
▁ಅದರ	-9.86016
▁completa	-9.86024
▁mismo	-9.86033
aff	-9.86049
eiro	-9.86061
ിട്ടുണ്ട	-9.86099
▁durant	-9.86173
▁demander	-9.86202
▁livre	-9.86289
▁пред	-9.86335
▁рас	-9.86353
▁resultado	-9.8648
ബ	-9.86526
▁spo	-9.86531
▁mü	-9.86613
vamos	-9.86619
▁مقالات	-9.86642
री	-9.86726
▁sí	-9.86761
▁telefon	-9.86804
قدم	-9.8684
▁artikeln	-9.86948
▁appar	-9.86962
▁secondo	-9.87022
▁تت	-9.87064
▁veel	-9.87111
ിലെ	-9.87291
▁narciso	-9.87298
▁meine	-9.87322
▁onder	-9.87327
▁creativ	-9.87341
▁futur	-9.87375
▁أنت	-9.87379
ுகிறது	-9.8759
gio	-9.87689
ξε	-9.87825
ελ	-9.87988
▁ella	-9.87991
▁λέξ	-9.88142
▁fall	-9.88224
very	-9.88344
▁home	-9.88352
▁ವಿ	-9.88367
▁sti	-9.88516
ാള	-9.88599
▁vandalismo	-9.88648
▁mås	-9.88655
▁dois	-9.88679
ала	-9.88784
▁sonra	-9.88828
▁sources	-9.89144
▁onde	-9.89205
▁stan	-9.89238
▁ನಾರ್ಸಿಸಾ	-9.89284
ary	-9.89442
▁என்பத	-9.89587
▁fei	-9.89772
▁reti	-9.89774
▁pane	-9.89845
तो	-9.89989
iamo	-9.90108
ort	-9.90175
▁lå	-9.90176
ണ്	-9.90207
جل	-9.9023
▁realiz	-9.90306
▁nada	-9.90457
▁scho	-9.90509
▁zie	-9.90627
ைச்	-9.90861
zu	-9.90998
▁pren	-9.9103
▁என்	-9.91159
മി	-9.91169
▁tale	-9.91178
ις	-9.91212
▁حي	-9.91256
fd	-9.91367
ستخدم	-9.91389
▁tak	-9.91447
▁bent	-9.91526
في	-9.9167
யாக	-9.91734
▁mio	-9.91784
gie	-9.91814
▁care	-9.91849
iendo	-9.91855
kov	-9.91858
▁ನಾರ್ಸಿಸ	-9.91871
▁common	-9.92726
ила	-9.9288
▁anne	-9.92925
ിരുന്നു	-9.92943
ações	-9.92945
▁dispute	-9.93453
ительн	-9.9349
ின	-9.9354
ഡ്	-9.93577
▁sab	-9.93691
▁semana	-9.93692
μένο	-9.93903
▁tard	-9.93957
wed	-9.9404
▁источник	-9.94066
തെ	-9.94795
▁ಪದ	-9.94805
▁fine	-9.94853
▁mind	-9.95184
ضي	-9.95393
ನ್	-9.95481
▁bild	-9.95494
▁mange	-9.95513
دة	-9.95514
ಕಾ	-9.95575
▁хорош	-9.9558
▁κάποιο	-9.9559
▁statisti	-9.95618
▁раздел	-9.95647
▁trans	-9.95662
▁amerika	-9.95666
آ	-9.95676
തിനാ	-9.95678
ುತ್ತಿದ್ದ	-9.95679
ಷ	-9.95681
ण	-9.95693
थ	-9.95693
▁développe	-9.95693
▁έξυπν	-9.95693
▁ഏറ	-9.95693
▁സ്വർണ്ണ	-9.95693
википедию	-9.95694
قواعد	-9.95694
ற்பு	-9.95694
ങ്ങനെ	-9.95694
ിലൂടെ	-9.95694
▁científica	-9.95694
▁crítica	-9.95694
▁current	-9.95694
▁december	-9.95694
▁especial	-9.95694
▁follow	-9.95694
▁fortælle	-9.95694
▁geweldig	-9.95694
▁increasing	-9.95694
▁nouvelle	-9.95694
▁pronuncia	-9.95694
▁riktigt	-9.95694
▁structure	-9.95694
▁virgin	-9.95694
▁şimdi	-9.95694
▁βικι	-9.95694
▁действи	-9.95694
▁அம்மா	-9.95694
▁சொற்றொடர	-9.95694
▁ரொட்டி	-9.95694
▁ಧನ್ಯವಾದಗಳು	-9.95694
▁മികച്ച	-9.95694
▁യന്ത്രപഠന	-9.95694
▁വീഡിയോ	-9.95694
▁history	-9.95694
▁raggiun	-9.95694
▁немного	-9.95694
▁перво	-9.95694
▁пользовател	-9.95694
▁ஆங்கில	-9.95694
▁vraag	-9.95694
▁ಕೆಲವ	-9.95694
▁പരി	-9.95694
▁μπορώ	-9.95694
▁один	-9.95694
▁الأمر	-9.95694
▁function	-9.95694
▁progetti	-9.95694
▁progetto	-9.95694
تعلم	-9.95694
▁libro	-9.95694
வேறு	-9.95694
▁சொல்லலாம்	-9.95694
▁group	-9.95694
▁gratuit	-9.95694
▁ಹೋಗ	-9.95695
▁cultura	-9.95695
▁conserva	-9.95695
▁fortsätt	-9.95695
▁special	-9.95695
▁tinha	-9.95695
▁update	-9.95695
लेख	-9.95695
▁focus	-9.95696
جميع	-9.95696
▁création	-9.95697
▁publish	-9.95697
▁autonom	-9.95697
connaissance	-9.95698
▁heeft	-9.95698
▁போல	-9.95699
▁principe	-9.957
▁rapid	-9.957
språkig	-9.95701
▁ocean	-9.95701
▁voul	-9.95703
▁skarp	-9.95705
▁comunità	-9.95706
▁insiem	-9.95708
▁burada	-9.95709
▁φράση	-9.95709
▁வந்த	-9.95714
▁coisa	-9.95716
zwei	-9.95716
▁association	-9.95717
▁சிற	-9.95719
தமான	-9.95722
▁filtr	-9.95723
▁revert	-9.95736
▁முன்	-9.95737
விட்ட	-9.95738
▁обучения	-9.95739
▁novemb	-9.9575
▁இருக்கும்	-9.95751
ங்கே	-9.95755
▁الق	-9.95757
▁λέξη	-9.95761
▁அழ	-9.95772
▁licence	-9.95778
▁right	-9.95784
▁york	-9.95786
್ಯವ	-9.95787
ish	-9.9579
പ്പോ	-9.95792
▁дела	-9.95796
▁milion	-9.95814
όπ	-9.95815
▁ifade	-9.95815
γμα	-9.95824
tüm	-9.95825
ंग	-9.95828
ход	-9.95836
ould	-9.95838
▁vän	-9.95845
▁सं	-9.95851
▁opinion	-9.95855
▁அவர்கள	-9.95888
ാലു	-9.95889
ème	-9.95918
▁δια	-9.95927
ışı	-9.95951
▁teori	-9.95951
▁jour	-9.95952
▁river	-9.95968
▁provide	-9.95992
بعد	-9.96
▁marion	-9.96005
▁εν	-9.96037
▁aquel	-9.96097
▁contribution	-9.9614
▁sms	-9.9615
▁universidad	-9.96194
▁ricerca	-9.96215
▁yan	-9.96279
gla	-9.96296
▁brain	-9.96338
soft	-9.964
èle	-9.96406
▁adam	-9.96422
gnu	-9.96449
▁quas	-9.96472
▁jam	-9.96569
▁pont	-9.96592
▁zeg	-9.96617
▁vida	-9.96662
حصل	-9.96715
▁campo	-9.9672
▁الخ	-9.96762
كلمة	-9.96839
▁action	-9.96856
▁êt	-9.96925
▁conven	-9.96964
▁possible	-9.97012
▁quiere	-9.97025
▁déj	-9.9705
▁ಬಯಸ	-9.97083
▁mayor	-9.97149
ाम	-9.9719
▁prove	-9.97202
▁comer	-9.97253
▁godt	-9.97328
▁alem	-9.97418
مقالة	-9.97505
▁parce	-9.9759
utan	-9.97703
▁networks	-9.97844
▁أع	-9.97894
ще	-9.97941
▁vale	-9.98073
▁jan	-9.9808
▁leven	-9.98103
мер	-9.98148
antal	-9.98185
ores	-9.98244
ுவத	-9.9826
▁anna	-9.98352
▁conten	-9.98421
▁tru	-9.98475
▁bank	-9.98547
▁fram	-9.98641
▁appel	-9.9875
eğer	-9.98841
ния	-9.98884
▁sha	-9.98934
▁cara	-9.99057
▁serie	-9.99187
‍	-9.99214
▁mim	-9.99337
▁lack	-9.99494
▁rom	-9.9974
άσε	-9.99897
тив	-9.99941
▁ami	-9.99945
▁principale	-9.99959
util	-10.0058
system	-10.0079
prov	-10.0079
оз	-10.0082
▁vor	-10.0083
ಜ	-10.0088
▁banc	-10.0093
erede	-10.0097
ebilir	-10.0123
▁سأ	-10.0141
одно	-10.0172
▁font	-10.0176
▁moe	-10.0193
த்தை	-10.0217
mbro	-10.0225
▁contenut	-10.0231
▁lista	-10.0237
▁bell	-10.0242
▁eve	-10.0243
سط	-10.0243
аци	-10.0254
▁κάν	-10.026
லா	-10.0287
ости	-10.0301
▁france	-10.0301
▁materiale	-10.031
▁değil	-10.0312
▁prima	-10.0316
▁supervis	-10.0325
▁personal	-10.0331
▁important	-10.0336
▁hele	-10.0349
▁norma	-10.0363
▁página	-10.0381
▁விக்கிப்பீடியாவ	-10.0382
▁tradu	-10.0405
cré	-10.0411
tengo	-10.043
hose	-10.0432
▁உருவாக்க	-10.0443
izza	-10.0445
▁என்ற	-10.046
▁dall	-10.0466
▁مقال	-10.0476
▁engels	-10.0482
▁கேட்	-10.0484
ங்கள	-10.0489
▁தங்க	-10.0498
▁че	-10.0511
contra	-10.0512
▁programa	-10.0527
▁stav	-10.0534
استخدام	-10.0542
رف	-10.0547
▁först	-10.0552
ного	-10.0555
عم	-10.0558
ные	-10.0562
▁camp	-10.0572
sını	-10.0592
▁fact	-10.0596
▁trait	-10.0599
حص	-10.0608
ological	-10.0619
तर	-10.0625
▁lingua	-10.0627
▁حال	-10.0637
э	-10.065
▁escr	-10.0661
تحرير	-10.0663
فعل	-10.0667
▁güzel	-10.067
diğini	-10.0672
τικ	-10.0673
▁இருக்க	-10.0674
▁detect	-10.0675
ുമ്പോൾ	-10.0675
▁vai	-10.0678
ß	-10.068
़	-10.068
ഥ	-10.068
▁svilupp	-10.068
▁ആഗ്രഹിക്കുന്നു	-10.068
έπει	-10.068
βικιπαίδεια	-10.068
человек	-10.068
ಲ್ಪ	-10.068
ುವುದಿಲ್ಲ	-10.068
ർത്ഥം	-10.068
▁afschuwelijk	-10.068
▁bayesian	-10.068
▁claim	-10.068
▁clasifica	-10.068
▁développé	-10.068
▁gjort	-10.068
▁influence	-10.068
▁investiga	-10.068
▁método	-10.068
▁officiel	-10.068
▁oversvømme	-10.068
▁snabb	-10.068
▁subject	-10.068
▁teşekkür	-10.068
▁undskyld	-10.068
▁vandaliz	-10.068
▁vídeo	-10.068
▁ευχαριστώ	-10.068
▁время	-10.068
▁использовать	-10.068
▁редактор	-10.068
▁لذلك	-10.068
▁बहु	-10.068
▁சொற்கள	-10.068
▁போன்ற	-10.068
▁ಚಿನ್ನದ	-10.068
▁അമ്മയ	-10.068
▁ആവശ്യ	-10.068
▁നടത്ത	-10.068
brød	-10.068
ητέ	-10.068
▁arbeit	-10.068
▁ordinateur	-10.068
▁tidigare	-10.068
▁الآن	-10.068
▁चाह	-10.068
▁जिस	-10.068
▁ஏன	-10.068
▁android	-10.068
▁säker	-10.068
▁introduc	-10.0681
▁voiture	-10.0681
▁dictionary	-10.0681
▁vragen	-10.0681
▁exact	-10.0681
▁contributors	-10.0681
▁italian	-10.0681
▁measure	-10.0681
▁policy	-10.0681
▁small	-10.0681
▁fråga	-10.0681
▁ragazz	-10.0681
▁gracias	-10.0681
▁slow	-10.0681
وجد	-10.0681
▁møde	-10.0681
▁context	-10.0681
▁nuevo	-10.0681
▁பார்த்த	-10.0681
▁taraf	-10.0681
▁μερικ	-10.0681
▁narcissus	-10.0681
▁люб	-10.0681
▁signal	-10.0681
▁diğer	-10.0681
▁food	-10.0681
▁kullanıl	-10.0681
▁பற்றி	-10.0681
▁confus	-10.0681
ೋಣ	-10.0681
க்கிறேன்	-10.0681
▁முடியாது	-10.0681
▁sexu	-10.0681
▁تعرف	-10.0681
▁καλά	-10.0682
▁logiciel	-10.0682
▁også	-10.0682
▁philosophie	-10.0682
▁πάρ	-10.0682
▁потом	-10.0682
▁σου	-10.0682
▁service	-10.0682
عديد	-10.0682
▁conditions	-10.0682
feliz	-10.0682
க்கிறீர்கள்	-10.0682
▁ämne	-10.0683
▁benim	-10.0683
▁local	-10.0683
▁бол	-10.0683
▁hacer	-10.0683
håll	-10.0683
▁viola	-10.0684
▁auteur	-10.0684
▁stump	-10.0684
▁value	-10.0684
▁making	-10.0685
▁மீ	-10.0685
പ്പെടുന്നു	-10.0685
▁him	-10.0686
▁servidor	-10.0686
कु	-10.0686
stead	-10.0686
▁ചിലർ	-10.0687
▁تفعل	-10.0687
▁källor	-10.0688
▁dedica	-10.0688
▁cual	-10.0688
▁εγ	-10.0688
▁ಬಂದ	-10.0689
▁bazı	-10.069
eño	-10.0691
▁പദ	-10.0691
▁proper	-10.0692
▁acess	-10.0692
▁одна	-10.0693
ിക്കാൻ	-10.0693
▁zich	-10.0694
▁religi	-10.0695
▁någ	-10.0696
▁promo	-10.0697
▁træ	-10.0698
▁heller	-10.0701
▁protect	-10.0701
▁anim	-10.0701
▁editorial	-10.0703
دث	-10.0703
▁പല	-10.0703
രുത	-10.0704
▁week	-10.0704
ாம்	-10.0709
▁bonne	-10.0709
▁contain	-10.071
айн	-10.071
ുകൾ	-10.071
കം	-10.071
yim	-10.0712
▁பிர	-10.0715
▁αυτή	-10.0718
▁obten	-10.072
▁gøre	-10.0722
lık	-10.0723
بًا	-10.0724
▁χρ	-10.0727
ún	-10.0731
▁today	-10.0736
ον	-10.0736
▁automatica	-10.074
▁interacti	-10.0741
▁gang	-10.0744
▁vertel	-10.0745
▁mån	-10.0746
▁samman	-10.0747
ಳು	-10.0753
▁senti	-10.0754
умны	-10.0756
▁thank	-10.0762
▁said	-10.0763
▁disso	-10.0764
▁read	-10.0766
ческ	-10.0776
ung	-10.0777
▁ಪದವ	-10.0779
▁seule	-10.0782
وب	-10.0801
ಂದು	-10.0815
▁данны	-10.0818
ète	-10.0818
▁unique	-10.082
μά	-10.0827
azza	-10.0828
quote	-10.0828
يكون	-10.0838
▁estive	-10.084
mutter	-10.0846
மி	-10.0849
▁novo	-10.0855
▁linu	-10.0858
يات	-10.0888
രിക്കും	-10.0891
▁publicado	-10.0896
тся	-10.0902
▁نص	-10.0906
▁sted	-10.0908
▁beste	-10.0909
كما	-10.091
ке	-10.0912
presa	-10.0914
ജി	-10.0916
▁ello	-10.0923
ativa	-10.0939
▁kelimeler	-10.0947
▁അവര	-10.0954
▁erro	-10.0958
▁dra	-10.0963
▁fam	-10.0982
▁facile	-10.0992
▁എന്ത	-10.1005
έχει	-10.1006
klı	-10.1008
▁texto	-10.1016
▁reg	-10.1033
slag	-10.1035
▁mening	-10.1038
▁continuar	-10.1043
وق	-10.1045
aggi	-10.1069
▁ಹೆಚ್ಚು	-10.107
nelle	-10.1078
▁clic	-10.1106
▁تس	-10.111
பி	-10.1113
▁لكن	-10.1144
▁studi	-10.1153
യുള്ള	-10.1173
▁şeyi	-10.1177
▁grado	-10.1188
ذكية	-10.1188
icke	-10.124
brot	-10.1294
▁må	-10.1296
dados	-10.1318
▁notion	-10.132
செய்த	-10.1329
بية	-10.1365
eerd	-10.1374
▁souven	-10.1383
ställe	-10.1385
فت	-10.1387
ണ്ണ	-10.1388
ിച്ചു	-10.1398
part	-10.1401
▁principal	-10.1415
مية	-10.1417
ски	-10.1455
ής	-10.149
▁él	-10.1498
γε	-10.1499
മുള്ള	-10.1505
ğun	-10.1515
tiene	-10.1534
▁lid	-10.155
▁ಇಲ್ಲ	-10.1566
▁എന്താണ	-10.1574
▁المر	-10.16
φορά	-10.1604
ford	-10.1606
hang	-10.1622
versioner	-10.1636
താണ്	-10.1642
вы	-10.1659
ود	-10.1675
தன்	-10.1683
கிறீர்கள்	-10.1695
▁ஒருவர	-10.1727
صف	-10.173
▁apa	-10.1736
▁सम	-10.1738
ിരുന്ന	-10.1741
▁rend	-10.1765
слу	-10.1765
كون	-10.1772
▁biolog	-10.1788
amiento	-10.1806
▁enciclopedi	-10.1834
rono	-10.1849
maakt	-10.185
ಿದ್ದರೆ	-10.1856
ೆರ	-10.1867
reader	-10.1869
▁stess	-10.1873
▁demande	-10.1875
لست	-10.1875
▁rub	-10.1881
▁мож	-10.1887
▁கண	-10.1895
▁instru	-10.1896
izzazione	-10.19
ಬಹುದ	-10.1902
▁стать	-10.1907
▁част	-10.1913
▁categor	-10.1921
▁descri	-10.1922
▁தன	-10.1922
▁discuss	-10.1924
▁επ	-10.1927
ability	-10.193
▁മറ്റ	-10.193
▁است	-10.193
ಮಾರ್	-10.193
▁videnskab	-10.193
أحيان	-10.193
ಖ	-10.193
▁извини	-10.193
▁ಸಮಯ	-10.193
▁അറിയ	-10.193
▁algoritmi	-10.193
▁fácil	-10.193
▁öğren	-10.193
▁ಬ್ರೆಡ್	-10.193
▁അടുത്ത	-10.193
▁ഉള്ള	-10.193
▁വളരെയധിക	-10.193
kritik	-10.193
skrift	-10.193
γνώμη	-10.193
ирован	-10.193
ـ	-10.193
योग	-10.193
ಬೇಕು	-10.193
ುತ್ತಿದ್ದೇನೆ	-10.193
▁analysis	-10.193
▁bedankt	-10.193
▁billion	-10.193
▁erstaunlich	-10.193
▁hjælp	-10.193
▁individu	-10.193
▁international	-10.193
▁konsensus	-10.193
▁meilleur	-10.193
▁mysql	-10.193
▁möte	-10.193
▁parfois	-10.193
▁potential	-10.193
▁potrebbe	-10.193
▁primeira	-10.193
▁próxima	-10.193
▁recherche	-10.193
▁règles	-10.193
▁système	-10.193
▁träffa	-10.193
▁usemodwiki	-10.193
▁wörter	-10.193
▁yardım	-10.193
▁último	-10.193
▁καλύτερ	-10.193
▁μαζί	-10.193
▁πραγματικ	-10.193
▁όχι	-10.193
▁английск	-10.193
▁верси	-10.193
▁видео	-10.193
▁золот	-10.193
▁машинно	-10.193
▁метод	-10.193
▁проблем	-10.193
▁بطيئ	-10.193
▁خلال	-10.193
▁شيئًا	-10.193
▁अच्छ	-10.193
▁जैस	-10.193
▁ஆம	-10.193
▁கனவு	-10.193
▁நேர	-10.193
▁பின்னர	-10.193
▁மாற்ற	-10.193
▁ഞങ്ങൾ	-10.193
▁നന്നായി	-10.193
▁വാക്യ	-10.193
▁amount	-10.193
▁nieuw	-10.193
▁output	-10.193
▁physic	-10.193
▁rêve	-10.193
▁ответ	-10.193
▁форм	-10.193
▁ಉದಾಹರಣೆ	-10.193
▁ಕನಸ	-10.193
▁ജന	-10.193
▁തോന്ന	-10.193
cómo	-10.193
llanabileceğiniz	-10.193
▁nasıl	-10.193
▁energy	-10.1931
▁janvier	-10.1931
▁lucene	-10.1931
▁black	-10.1931
▁weiß	-10.1931
▁व्य	-10.1931
▁encuentr	-10.1931
íveis	-10.1931
▁aparece	-10.1931
▁κατά	-10.1931
▁кажд	-10.1931
▁само	-10.1931
▁maneira	-10.1931
▁corrig	-10.1931
▁guld	-10.1931
▁الرغ	-10.1931
▁predictions	-10.1931
druk	-10.1931
മ്മ	-10.1931
▁anonym	-10.1931
▁nouveau	-10.1931
▁phase	-10.1931
▁happen	-10.1931
▁réalis	-10.1931
▁जान	-10.1931
▁elimina	-10.1931
▁édition	-10.1931
مكان	-10.1931
▁connection	-10.1931
▁maggior	-10.1931
▁snäll	-10.1931
▁ತಿಳಿದಿದೆ	-10.1931
▁صفح	-10.1931
▁شكر	-10.1931
▁grow	-10.1931
▁égal	-10.1931
ರ್ಥ	-10.1931
ätze	-10.1931
▁remov	-10.1931
▁καλή	-10.1931
▁رقم	-10.1931
▁comport	-10.1931
▁حقًا	-10.1931
▁ഉപയോഗിക്കാൻ	-10.1931
▁statistics	-10.1931
▁rapport	-10.1931
▁രണ്ട	-10.1931
▁വിക്കി	-10.1931
▁κάνετε	-10.1932
värt	-10.1932
▁мог	-10.1932
▁pagin	-10.1932
▁ip	-10.1932
▁score	-10.1932
▁german	-10.1932
▁செல்ல	-10.1932
cional	-10.1932
▁ήρθ	-10.1932
▁cerca	-10.1932
▁referência	-10.1933
▁adopt	-10.1933
▁parodi	-10.1933
issues	-10.1933
▁приве	-10.1933
மார்	-10.1933
ήσει	-10.1933
سمح	-10.1933
▁தெரியும்	-10.1933
maktadır	-10.1934
▁devices	-10.1934
▁things	-10.1934
▁escrito	-10.1934
▁range	-10.1934
▁niveau	-10.1934
▁condui	-10.1934
▁нарцисс	-10.1934
▁vision	-10.1934
▁ചെയ്യുന്നു	-10.1935
جامع	-10.1935
▁moeder	-10.1935
▁без	-10.1935
▁administrator	-10.1936
▁нескольк	-10.1936
fatti	-10.1936
▁rédacteur	-10.1936
▁travers	-10.1937
▁discussion	-10.1937
▁εκεί	-10.1937
▁décri	-10.1937
▁busca	-10.1938
▁ευ	-10.1938
▁статья	-10.1938
arriage	-10.1938
▁detection	-10.1939
▁weekend	-10.194
▁únic	-10.194
▁contrast	-10.1941
▁formul	-10.1941
▁skapa	-10.1942
▁goud	-10.1943
▁reach	-10.1944
ப்படும்	-10.1945
сок	-10.1945
avoir	-10.1946
▁chiedere	-10.1947
▁geben	-10.1947
▁часто	-10.1947
മില്ല	-10.1948
▁every	-10.1948
ுங்கள்	-10.1949
▁التحرير	-10.195
▁prepar	-10.1951
▁tool	-10.1951
▁geral	-10.1951
▁stree	-10.1951
▁தர	-10.1951
ന്ധ	-10.1953
ಿದ್ದೀರಿ	-10.1953
коло	-10.1953
▁fung	-10.1954
▁domina	-10.1954
ली	-10.1956
еще	-10.1959
സ്റ്റ	-10.1959
йте	-10.196
▁false	-10.1961
▁layer	-10.1962
dalla	-10.1963
miş	-10.1963
▁medio	-10.1964
▁consist	-10.1966
▁posto	-10.1966
▁исследовани	-10.1968
▁feito	-10.1969
▁entrada	-10.1969
xim	-10.197
▁regel	-10.197
▁chine	-10.1971
▁significant	-10.1973
▁neutralit	-10.1974
▁día	-10.1975
▁estudi	-10.1977
▁получил	-10.198
▁അതിശയകരമായ	-10.1982
▁possa	-10.1983
▁basis	-10.1984
▁sonho	-10.1988
▁goal	-10.1992
▁golden	-10.1993
نفسك	-10.1995
scre	-10.1997
▁llev	-10.1998
▁poco	-10.1999
▁roll	-10.2001
▁بها	-10.2003
▁bist	-10.2015
▁daglig	-10.2018
▁stesso	-10.2022
▁geven	-10.2023
▁bilgiler	-10.2028
meye	-10.2033
ικά	-10.2041
▁parla	-10.2043
chter	-10.2045
▁dopo	-10.2047
▁кр	-10.2047
▁dock	-10.205
▁bunun	-10.2058
▁seja	-10.206
▁premier	-10.2061
▁konu	-10.2063
▁yapma	-10.2064
▁baz	-10.2074
▁juli	-10.2083
▁usage	-10.2084
▁encor	-10.2088
▁leren	-10.2091
▁querid	-10.2093
▁areas	-10.2103
πλ	-10.2107
fil	-10.2111
جع	-10.2115
▁alter	-10.2123
πό	-10.2129
شار	-10.2133
▁gir	-10.2139
ங்களை	-10.214
▁passa	-10.2141
arebbe	-10.2144
▁കുറച്ച	-10.2145
بدو	-10.2148
pesso	-10.2158
تش	-10.2179
டுத்த	-10.218
▁eks	-10.2181
▁pense	-10.2188
▁författa	-10.2204
▁haber	-10.222
▁typ	-10.2232
ân	-10.2233
▁cal	-10.2237
▁step	-10.2261
δει	-10.2267
பு	-10.2269
ுகிறேன்	-10.2282
▁ചെയ്യുന്നത	-10.2287
conosci	-10.2308
▁bang	-10.2319
▁contribute	-10.2327
tsch	-10.2335
hört	-10.2338
▁eas	-10.234
akt	-10.2344
▁لدي	-10.237
ിക്കുക	-10.2385
ijn	-10.2385
tzt	-10.2394
▁ಮರ	-10.2398
ളുടെ	-10.24
கிறது	-10.2423
റെ	-10.243
▁rate	-10.243
▁befor	-10.2436
▁telle	-10.2439
بط	-10.2447
▁basat	-10.2465
▁lenta	-10.247
لاً	-10.2474
▁relative	-10.2478
ാധ	-10.2485
ப்பட்டது	-10.2529
osas	-10.2553
laats	-10.261
azin	-10.2619
irkel	-10.2637
вар	-10.2641
വില	-10.2644
டைய	-10.2663
ലോ	-10.2665
▁mama	-10.2685
machen	-10.2702
▁find	-10.2706
ധ	-10.2729
▁politi	-10.2743
▁απ	-10.2751
مثل	-10.2773
ики	-10.2777
لز	-10.2777
κε	-10.2778
▁слов	-10.2779
αυτό	-10.2782
▁studie	-10.2787
wikipedia	-10.2789
▁contribui	-10.2805
press	-10.2816
▁നിങ്ങളോട	-10.283
▁ét	-10.2853
▁ಹೊಂದ	-10.2854
ುತ್ತದೆ	-10.2854
изм	-10.2876
ങ്ങ	-10.2888
▁hör	-10.2909
▁desarroll	-10.2911
▁mac	-10.2916
തിന്	-10.2925
ക്കുന്നു	-10.2932
▁fuer	-10.2935
▁addition	-10.2938
ಿಯನ್	-10.2953
organiz	-10.2961
▁coment	-10.2967
▁send	-10.2969
ುವುದು	-10.2973
▁spel	-10.2995
pué	-10.301
más	-10.3013
▁vist	-10.3029
▁forsk	-10.3031
hip	-10.3048
▁network	-10.3053
▁cli	-10.3054
تقد	-10.3056
hol	-10.3079
▁edition	-10.3097
▁automat	-10.3109
iedad	-10.3111
ном	-10.3112
sätt	-10.3126
▁കുറ	-10.3127
больш	-10.3133
வார	-10.3136
aak	-10.3149
दा	-10.3182
▁usat	-10.3186
▁formal	-10.3197
▁pubblic	-10.321
▁пре	-10.3216
φα	-10.3221
вол	-10.3223
▁läs	-10.3248
λικ	-10.3248
station	-10.3256
▁αυτ	-10.3256
ಮೆ	-10.327
▁maddeleri	-10.3278
▁incorpora	-10.3278
▁προσ	-10.328
ಬಹುದು	-10.3283
▁product	-10.3301
بك	-10.3303
▁bloquea	-10.3303
தான	-10.3304
عج	-10.3304
▁madde	-10.3313
▁samma	-10.3314
قبل	-10.3326
▁trabaja	-10.3338
▁диск	-10.3345
ಿಕ	-10.3346
пер	-10.3348
▁environ	-10.335
▁ಹೇಗ	-10.3354
ए	-10.3356
ught	-10.3357
mış	-10.3357
▁değiştir	-10.3358
▁நீ	-10.3358
▁reste	-10.3359
▁лицензи	-10.3359
ദ്ധ	-10.3359
ഘ	-10.3359
ഖ	-10.3359
▁addestra	-10.3359
▁தொகுப்ப	-10.3359
ë	-10.3359
ünlü	-10.3359
γραφ	-10.3359
будь	-10.3359
верен	-10.3359
تغييرات	-10.3359
مؤسس	-10.3359
ष	-10.3359
ॉ	-10.3359
ಷ್ಟ	-10.3359
ഞ്ച	-10.3359
നോക്ക	-10.3359
▁acontece	-10.3359
▁approcci	-10.3359
▁behavior	-10.3359
▁berätta	-10.3359
▁científico	-10.3359
▁computing	-10.3359
▁difference	-10.3359
▁doğru	-10.3359
▁effort	-10.3359
▁extinction	-10.3359
▁fonction	-10.3359
▁häpnadsväckande	-10.3359
▁involve	-10.3359
▁mathematical	-10.3359
▁nécessaire	-10.3359
▁obrigado	-10.3359
▁previous	-10.3359
▁siguiente	-10.3359
▁själv	-10.3359
▁société	-10.3359
▁spørge	-10.3359
▁tråkig	-10.3359
▁wilderness	-10.3359
▁örneğin	-10.3359
▁última	-10.3359
▁εδώ	-10.3359
▁μετά	-10.3359
▁друзья	-10.3359
▁изображени	-10.3359
▁публикаци	-10.3359
▁сдела	-10.3359
▁создани	-10.3359
▁энциклопеди	-10.3359
▁أستطيع	-10.3359
▁الثاني	-10.3359
▁نهاية	-10.3359
▁அழகாக	-10.3359
▁இருக்கிறேன்	-10.3359
▁குறிப்பிட	-10.3359
▁ಇನ್ನೊಂದ	-10.3359
▁ನಿಧಾನ	-10.3359
▁അങ്ങനെ	-10.3359
▁ആണ്	-10.3359
▁ദിവസ	-10.3359
▁സ്വതന്ത്ര	-10.3359
▁atmospher	-10.3359
▁attravers	-10.3359
▁business	-10.3359
▁considér	-10.3359
▁facebook	-10.3359
▁suggest	-10.3359
▁αντί	-10.3359
▁αργ	-10.3359
▁дорог	-10.3359
▁مليون	-10.3359
▁அதிக	-10.3359
▁பதில	-10.3359
▁ವೀಡಿಯೊ	-10.3359
▁കണ്ടെത്ത	-10.3359
▁കഴിയില്ല	-10.3359
▁ലഭിക്ക	-10.3359
▁défini	-10.3359
▁désign	-10.3359
▁incrível	-10.3359
▁ശ്രദ്ധി	-10.3359
γρά	-10.3359
образ	-10.3359
ുവരി	-10.3359
▁amplia	-10.3359
▁புதிய	-10.3359
ذكر	-10.3359
ಮೇಲ	-10.3359
▁gemacht	-10.3359
▁katıl	-10.3359
▁verifica	-10.3359
▁yavaş	-10.3359
▁ಮುಂದ	-10.3359
▁لغة	-10.3359
▁ചേർ	-10.3359
bibliotecario	-10.3359
▁discover	-10.3359
▁vidéo	-10.3359
▁اليوم	-10.3359
▁probabilistic	-10.3359
▁ahora	-10.3359
▁ваше	-10.3359
▁الطع	-10.3359
▁मिल	-10.3359
▁grupo	-10.3359
▁næste	-10.3359
▁просто	-10.3359
لأي	-10.3359
▁καλό	-10.3359
▁கொடூரமான	-10.3359
ன்னை	-10.3359
▁luego	-10.3359
▁dizendo	-10.3359
▁privac	-10.3359
▁think	-10.3359
▁variables	-10.3359
▁edición	-10.3359
▁sample	-10.3359
▁outside	-10.3359
ುತ್ತಿದ್ದೀರಿ	-10.3359
▁المحررين	-10.3359
ıyorum	-10.3359
▁chiamat	-10.3359
▁difficult	-10.3359
▁examen	-10.336
▁ledsen	-10.336
▁launche	-10.336
▁തിരുത്തലുക	-10.336
▁beğen	-10.336
▁brit	-10.336
▁market	-10.336
▁beauty	-10.336
▁много	-10.336
نمو	-10.336
ющей	-10.336
▁valid	-10.336
▁initial	-10.336
спи	-10.336
▁estim	-10.336
▁harika	-10.336
▁reason	-10.336
كتب	-10.336
▁economist	-10.336
▁kişi	-10.336
▁étude	-10.336
▁وقت	-10.336
▁licença	-10.336
▁robot	-10.336
عرض	-10.336
▁weiter	-10.336
▁inclui	-10.336
▁américain	-10.336
▁терр	-10.336
▁cresci	-10.336
▁figur	-10.336
▁ελεύθερη	-10.336
▁agree	-10.3361
▁compte	-10.3361
▁திட்ட	-10.3361
▁público	-10.3361
▁ಪದಗಳ	-10.3361
▁gmat	-10.3361
▁italie	-10.3361
▁anomal	-10.3361
▁கால	-10.3361
▁collaborative	-10.3361
كبر	-10.3361
lemma	-10.3361
▁πήρ	-10.3362
▁speak	-10.3362
▁droom	-10.3362
▁παρά	-10.3362
▁mejor	-10.3362
▁compless	-10.3363
▁fantastico	-10.3363
▁yerin	-10.3363
▁amerikaner	-10.3363
▁информации	-10.3363
▁durum	-10.3363
▁raison	-10.3363
χωρ	-10.3364
▁forskare	-10.3364
▁chance	-10.3364
kauf	-10.3364
▁vagn	-10.3364
بل	-10.3364
ജൂ	-10.3364
τικό	-10.3364
▁consens	-10.3364
τική	-10.3364
▁parece	-10.3365
▁μπ	-10.3365
▁είπ	-10.3365
▁ಮೂ	-10.3365
್ಯಾ	-10.3365
▁messag	-10.3365
▁പക്ഷ	-10.3365
▁selv	-10.3366
▁état	-10.3366
▁liberté	-10.3366
▁siento	-10.3366
ಚ್	-10.3367
▁explica	-10.3367
▁horr	-10.3367
▁تكون	-10.3368
▁causa	-10.3368
φων	-10.3368
▁erreur	-10.3368
▁وأنت	-10.3369
▁pedir	-10.3369
ലൈ	-10.3369
▁compit	-10.337
▁gerek	-10.337
لقة	-10.337
▁denota	-10.337
▁month	-10.3371
visninge	-10.3371
▁الآخر	-10.3371
▁wro	-10.3372
eceği	-10.3372
▁usual	-10.3373
▁അവർ	-10.3373
▁தே	-10.3374
▁aprend	-10.3374
ಬ್	-10.3374
▁सकता	-10.3375
▁montre	-10.3375
lieu	-10.3376
▁espè	-10.3377
▁trouve	-10.3377
▁film	-10.3377
▁variation	-10.3377
▁traag	-10.3378
▁birço	-10.3378
▁yolu	-10.3379
▁volgen	-10.3379
▁agrad	-10.3379
mayı	-10.3379
▁quatr	-10.338
▁arm	-10.338
▁representation	-10.3382
▁anglo	-10.3382
ации	-10.3382
▁criticada	-10.3385
▁basic	-10.3385
ോടെ	-10.3387
शा	-10.3387
▁الموسوعة	-10.3388
▁diskussioner	-10.3388
▁الكلمة	-10.3391
▁lead	-10.3391
▁уч	-10.3392
▁nuov	-10.3393
▁welk	-10.3396
▁artiklarna	-10.3397
▁الجم	-10.3397
▁turing	-10.3398
▁priori	-10.3398
ضع	-10.3398
▁license	-10.3399
പോലെ	-10.3399
struction	-10.3399
▁nerede	-10.34
▁escreve	-10.3402
▁salt	-10.3403
oggi	-10.3403
οί	-10.3405
είτε	-10.3409
▁சு	-10.3409
▁etmek	-10.341
▁traum	-10.3411
▁manner	-10.3415
гол	-10.342
▁hold	-10.3422
പറഞ്ഞു	-10.3424
▁repar	-10.3425
▁leben	-10.3429
ison	-10.3432
soluzion	-10.3435
▁rubin	-10.3437
▁birini	-10.3437
▁há	-10.3439
▁emot	-10.3439
▁πι	-10.3439
▁incorporat	-10.3441
▁estimate	-10.3441
شك	-10.3442
▁weil	-10.3443
▁mail	-10.3446
▁misin	-10.3448
മെന്ന	-10.345
▁yok	-10.3452
sunto	-10.3457
▁ಮಾಡಲ	-10.3458
ുമായ	-10.346
▁aqui	-10.3465
tenho	-10.3465
▁ಬಳಸಬಹುದ	-10.3468
▁zal	-10.3468
▁dro	-10.3476
▁anni	-10.3477
▁pensar	-10.3477
▁மூலம	-10.3479
scola	-10.3479
▁minimiz	-10.3479
▁sosten	-10.3479
rill	-10.3485
▁talk	-10.3487
▁jud	-10.3489
▁författare	-10.3493
▁amic	-10.3494
▁auch	-10.3496
▁maddeler	-10.3497
plicat	-10.3526
▁viaj	-10.3529
automatis	-10.3532
▁olan	-10.3533
ള്ള	-10.354
▁cach	-10.3542
▁تن	-10.3543
▁dó	-10.3555
▁egen	-10.3555
▁contrari	-10.3556
tår	-10.3563
два	-10.3566
▁செய்து	-10.3567
▁opini	-10.3578
▁مست	-10.3579
▁agi	-10.3598
▁apprend	-10.3604
▁åt	-10.362
▁venne	-10.3624
▁abon	-10.3647
ಾಗಲ	-10.3655
▁foss	-10.3658
مما	-10.368
▁കൂട	-10.3693
▁мил	-10.3711
▁നല്ലതാണ	-10.3728
مال	-10.3749
pict	-10.3751
▁crée	-10.376
annel	-10.3772
анн	-10.3775
рав	-10.3782
▁viss	-10.3785
▁cat	-10.3794
▁ಇಲ್ಲಿ	-10.3797
ykke	-10.3798
▁forni	-10.3802
▁acu	-10.3803
▁abb	-10.3813
திய	-10.3816
ിക്കുന്നു	-10.382
▁maio	-10.3831
éri	-10.3836
▁controll	-10.3844
▁stupend	-10.3847
represented	-10.3849
ನಲ್ಲಿ	-10.385
▁yanı	-10.3861
ngul	-10.3875
▁politic	-10.3883
pol	-10.3888
▁സാ	-10.3892
▁primer	-10.3967
▁rob	-10.3993
▁element	-10.4004
▁одн	-10.4032
aines	-10.4036
ഗ്	-10.4084
media	-10.4099
▁probabilit	-10.41
▁corp	-10.418
▁απο	-10.4238
ഭാ	-10.4256
▁major	-10.4272
▁அன்ற	-10.4296
بيل	-10.4312
▁الأك	-10.4318
▁என்பதை	-10.4326
iff	-10.433
still	-10.4335
▁libera	-10.4357
▁основ	-10.4363
▁constr	-10.4373
eram	-10.4403
ίο	-10.4409
source	-10.4431
apprentissage	-10.4437
daki	-10.4439
puede	-10.445
್ಯ	-10.4501
▁respons	-10.4509
▁nett	-10.4517
شي	-10.4533
▁áng	-10.4534
▁techn	-10.4573
▁esist	-10.4608
ью	-10.4624
ريد	-10.4632
istic	-10.4663
▁rediger	-10.4675
▁ನೀಡ	-10.4685
arım	-10.4688
▁эт	-10.4688
▁generat	-10.4699
▁comunidad	-10.4707
▁restri	-10.4709
forcement	-10.4715
▁arriv	-10.4737
▁olduğu	-10.4753
▁rule	-10.4767
▁depend	-10.4775
▁доступ	-10.4779
▁possibili	-10.4787
▁ach	-10.4795
▁التح	-10.4804
▁इसक	-10.4804
▁محرر	-10.4834
▁présent	-10.4837
delse	-10.486
▁كلم	-10.4861
▁trabalh	-10.4877
▁பயன	-10.4878
efl	-10.488
ப்பு	-10.4888
dığı	-10.4897
▁ricerc	-10.4938
дня	-10.4956
▁после	-10.4959
ही	-10.4975
▁bloqu	-10.4977
▁പോല	-10.4978
ர்கள்	-10.4985
▁ജോലി	-10.4995
▁oppos	-10.4995
ρό	-10.5001
▁licen	-10.5005
▁பயன்படுத்தக்கூட	-10.5006
الأو	-10.5009
▁وأن	-10.5017
▁хот	-10.5018
▁обучени	-10.5018
скольк	-10.5018
▁econom	-10.502
▁génér	-10.5021
▁philosoph	-10.5023
سياس	-10.5025
▁الجد	-10.5025
▁gespr	-10.5025
смотр	-10.5025
ಚಿತ	-10.5026
▁anális	-10.5026
ँ	-10.5026
ഭാഷകളി	-10.5026
▁auktorit	-10.5026
▁particulière	-10.5026
▁автор	-10.5026
▁இயங்க	-10.5026
▁கேள்வி	-10.5026
▁சதுப்பு	-10.5026
▁ചോദിക്ക	-10.5026
enseignement	-10.5026
rappresenta	-10.5026
symbol	-10.5026
βιβλί	-10.5026
сообщ	-10.5026
إنترنت	-10.5026
ضافة	-10.5026
مراجعة	-10.5026
മാണെന്ന	-10.5026
▁acadêmico	-10.5026
▁ansiklopedi	-10.5026
▁approach	-10.5026
▁appropriat	-10.5026
▁argument	-10.5026
▁búsqueda	-10.5026
▁büyü	-10.5026
▁cambio	-10.5026
▁communication	-10.5026
▁computational	-10.5026
▁copyright	-10.5026
▁desculpe	-10.5026
▁difícil	-10.5026
▁discipline	-10.5026
▁désolé	-10.5026
▁eksempel	-10.5026
▁endişelenme	-10.5026
▁februar	-10.5026
▁forvirre	-10.5026
▁följ	-10.5026
▁héberge	-10.5026
▁internautes	-10.5026
▁interpreta	-10.5026
▁i̇ngilizce	-10.5026
▁kaynak	-10.5026
▁krijg	-10.5026
▁library	-10.5026
▁linguistic	-10.5026
▁língua	-10.5026
▁melissa	-10.5026
▁mudança	-10.5026
▁ocasion	-10.5026
▁onderzoek	-10.5026
▁oxford	-10.5026
▁particolar	-10.5026
▁relacionado	-10.5026
▁rüya	-10.5026
▁samarbet	-10.5026
▁schön	-10.5026
▁scientifique	-10.5026
▁scritt	-10.5026
▁sluggish	-10.5026
▁undersökning	-10.5026
▁utveckla	-10.5026
▁vetenskaplig	-10.5026
▁wikiscanner	-10.5026
▁üzerin	-10.5026
▁βίντεο	-10.5026
▁επίσης	-10.5026
▁επόμεν	-10.5026
▁καταπληκτικ	-10.5026
▁ναρκίσσα	-10.5026
▁παραδ	-10.5026
▁χρυσ	-10.5026
▁баз	-10.5026
▁вмест	-10.5026
▁интернет	-10.5026
▁материал	-10.5026
▁момент	-10.5026
▁политик	-10.5026
▁процесс	-10.5026
▁фраз	-10.5026
▁أست	-10.5026
▁أيضًا	-10.5026
▁الشخص	-10.5026
▁الفيديو	-10.5026
▁تمامًا	-10.5026
▁دائم	-10.5026
▁धन्यवाद	-10.5026
▁இருக்கிறீர்கள்	-10.5026
▁உள்ள	-10.5026
▁கருத்த	-10.5026
▁கலைக்களஞ்சிய	-10.5026
▁தொகுப்பாளர்கள	-10.5026
▁முடியவில்லை	-10.5026
▁வரை	-10.5026
▁வழி	-10.5026
▁விரும்பினால்	-10.5026
▁ಉತ್ತಮ	-10.5026
▁ಬಯಸಿದರೆ	-10.5026
▁ഉപയോക്താക്കൾ	-10.5026
▁കേൾക്ക	-10.5026
▁ചെയ്ത	-10.5026
▁തുടങ്ങി	-10.5026
▁മരിയ	-10.5026
▁റൊട്ടി	-10.5026
zionali	-10.5026
ï	-10.5026
википе	-10.5026
ಕೊಳ್ಳ	-10.5026
ീകര	-10.5026
▁arkadaşlar	-10.5026
▁düşün	-10.5026
▁everything	-10.5026
▁länk	-10.5026
▁üzgünüm	-10.5026
▁использован	-10.5026
▁остр	-10.5026
▁المثال	-10.5026
▁لأن	-10.5026
▁அதிர்ஷ்ட	-10.5026
▁இருப்ப	-10.5026
▁വാക്കുകൾ	-10.5026
verschillen	-10.5026
άτο	-10.5026
станов	-10.5026
حظة	-10.5026
وجود	-10.5026
▁available	-10.5026
▁chiunque	-10.5026
▁geometr	-10.5026
▁ibland	-10.5026
▁incluye	-10.5026
▁nederland	-10.5026
▁الخاص	-10.5026
quivalent	-10.5026
ˈ	-10.5026
▁arbeta	-10.5026
▁explain	-10.5026
▁lengua	-10.5026
معظم	-10.5026
▁advance	-10.5026
▁description	-10.5026
▁fonctionnement	-10.5026
▁gjord	-10.5026
▁utilizza	-10.5026
▁diffus	-10.5026
▁самы	-10.5026
▁haciendo	-10.5026
▁περι	-10.5026
▁redigeringar	-10.5026
етесь	-10.5026
▁aplica	-10.5026
▁cuenta	-10.5026
▁objetivo	-10.5026
▁recogni	-10.5026
▁اللغ	-10.5026
luğu	-10.5026
▁diyebilirsin	-10.5026
▁experter	-10.5026
▁independent	-10.5026
▁ಯಾವುದ	-10.5026
▁cruel	-10.5026
▁funzione	-10.5026
▁ಮಾರ್ಗ	-10.5026
▁pattern	-10.5026
жал	-10.5026
▁period	-10.5026
▁weather	-10.5026
▁execut	-10.5026
▁killer	-10.5026
▁представ	-10.5026
▁நண்பர்கள	-10.5026
▁conclusion	-10.5026
▁débat	-10.5026
▁alternativ	-10.5026
▁responde	-10.5026
▁дума	-10.5026
anthropologie	-10.5026
▁conclu	-10.5026
▁distinct	-10.5026
▁numara	-10.5026
intégr	-10.5026
هتم	-10.5026
▁cuya	-10.5026
ிலிருந்த	-10.5026
▁dispon	-10.5026
▁област	-10.5026
nergis	-10.5026
स्त	-10.5026
▁hitta	-10.5026
écologi	-10.5026
▁civil	-10.5026
ركة	-10.5026
▁sûr	-10.5026
▁sparse	-10.5026
▁صحي	-10.5026
▁pollu	-10.5026
▁esprit	-10.5026
▁ottenut	-10.5026
▁difficile	-10.5026
▁request	-10.5026
▁sogno	-10.5026
▁भी	-10.5026
▁accuracy	-10.5026
▁progr	-10.5026
▁adapt	-10.5026
▁വഴി	-10.5026
▁ανησυχείτε	-10.5026
▁ekmek	-10.5026
▁oficial	-10.5026
▁location	-10.5026
▁vanliga	-10.5026
خبز	-10.5026
▁motivo	-10.5026
▁critique	-10.5026
▁υπ	-10.5026
▁kolay	-10.5027
▁fluent	-10.5027
▁ultim	-10.5027
▁improve	-10.5027
▁முடிவ	-10.5027
▁afirm	-10.5027
▁दो	-10.5027
▁discut	-10.5027
▁മാതൃക	-10.5027
ήματα	-10.5027
▁compris	-10.5027
▁ഭയ	-10.5027
▁ideia	-10.5027
▁propre	-10.5027
▁dovre	-10.5027
▁sorgen	-10.5027
▁argent	-10.5027
▁frank	-10.5027
▁digital	-10.5027
ുണ്ടാക	-10.5027
▁ipote	-10.5027
▁μέρ	-10.5027
▁രസ	-10.5027
▁assist	-10.5027
laşa	-10.5027
ுதல்	-10.5027
▁telif	-10.5027
▁appear	-10.5027
▁classifica	-10.5027
▁пове	-10.5027
▁сред	-10.5028
▁design	-10.5028
▁ഗു	-10.5028
▁умно	-10.5028
▁email	-10.5028
▁own	-10.5028
െല്ലാ	-10.5028
▁بالفعل	-10.5028
▁خوا	-10.5028
▁begin	-10.5028
▁informazioni	-10.5028
▁pronto	-10.5028
▁обще	-10.5028
▁upset	-10.5029
▁record	-10.5029
têm	-10.5029
▁paradigm	-10.5029
▁needed	-10.5029
▁referencia	-10.5029
▁singol	-10.5029
cycl	-10.5029
▁licenza	-10.5029
▁പോകുന്നു	-10.503
▁constant	-10.503
▁sıra	-10.503
▁vendu	-10.5031
▁ഉപയോഗിക്കുന്നു	-10.5031
▁ولا	-10.5031
▁integr	-10.5031
▁أريد	-10.5031
▁eerder	-10.5031
▁bunlar	-10.5032
▁chiede	-10.5032
▁aveva	-10.5032
வ்வ	-10.5032
▁gånger	-10.5032
▁theory	-10.5033
▁espace	-10.5033
▁modifiche	-10.5033
▁anterior	-10.5033
▁хотя	-10.5034
▁разделов	-10.5034
▁offre	-10.5034
ولاي	-10.5034
ால	-10.5035
▁liebe	-10.5035
▁bekend	-10.5036
▁أحد	-10.5036
ಿದ್ದರು	-10.5036
érieur	-10.5037
▁sicur	-10.5038
▁ambi	-10.5038
зло	-10.5039
▁snar	-10.504
body	-10.504
шь	-10.504
▁είστε	-10.5041
▁spise	-10.5041
▁محم	-10.5041
▁ಸ್ನೇಹಿತರ	-10.5042
▁τότε	-10.5043
ண்டும்	-10.5044
iştir	-10.5044
▁becom	-10.5045
▁laisse	-10.5045
▁changement	-10.5045
▁minha	-10.5045
▁uom	-10.5046
hoog	-10.5046
متع	-10.5047
mbia	-10.5047
▁intervie	-10.5047
ρθ	-10.5047
▁bueno	-10.5048
anların	-10.5048
▁terrib	-10.5048
▁comenz	-10.5048
▁revisão	-10.5048
мене	-10.5048
कल	-10.5048
▁impara	-10.5048
necess	-10.5049
▁savoir	-10.5049
erwij	-10.505
▁biliyor	-10.505
▁turn	-10.5052
▁കഴിഞ്ഞ	-10.5054
▁award	-10.5055
▁сове	-10.5055
▁países	-10.5057
▁apart	-10.5058
▁direito	-10.506
▁ಹೆ	-10.5061
▁regol	-10.5061
gransk	-10.5063
▁bort	-10.5063
▁предложени	-10.5064
▁mannen	-10.5065
▁fiabili	-10.5066
▁petit	-10.5066
ோம்	-10.5068
▁pourrai	-10.5068
▁gelir	-10.5071
▁midd	-10.5074
енс	-10.5074
▁trafi	-10.5078
▁lleg	-10.5078
▁keer	-10.5078
▁processus	-10.5079
▁receive	-10.508
വീണ്	-10.5081
▁viene	-10.5082
▁sådan	-10.5082
▁watch	-10.5085
▁organization	-10.5087
▁universel	-10.5089
▁cours	-10.5089
▁portant	-10.5092
▁bitte	-10.5092
▁последн	-10.5093
▁status	-10.5095
▁nø	-10.5097
▁volta	-10.5098
άλλη	-10.5098
▁falsa	-10.51
berg	-10.5102
▁mental	-10.5102
▁publié	-10.5104
▁habit	-10.5109
▁ಮೆಲ್ಲ	-10.511
paper	-10.5114
கணி	-10.5116
▁fail	-10.5124
▁начал	-10.5125
prepa	-10.5129
▁associate	-10.5131
▁zorge	-10.5131
فهم	-10.5132
▁citation	-10.5132
▁pubblicat	-10.5138
▁நுபீடியாவ	-10.514
dığını	-10.5154
élect	-10.5154
▁eat	-10.5157
▁кар	-10.5158
ಮಾಡಿದ	-10.5169
▁presta	-10.518
وص	-10.5182
فكر	-10.5189
▁inizia	-10.5197
satt	-10.522
▁présenté	-10.5223
شع	-10.5225
▁contrat	-10.5233
istas	-10.5234
utilisation	-10.5244
carne	-10.5255
▁marca	-10.5262
▁politik	-10.5265
▁اعت	-10.5271
▁βρ	-10.5277
▁paid	-10.5278
▁доступны	-10.528
▁гор	-10.5285
▁leid	-10.5287
ರುವ	-10.5304
▁full	-10.5312
yordu	-10.532
λή	-10.5342
▁venu	-10.5367
görü	-10.5404
▁bound	-10.5457
ಿಸಲ	-10.5463
▁நாள	-10.5464
▁гр	-10.5483
▁научны	-10.5504
▁mah	-10.5512
▁additional	-10.5547
ವಾರ	-10.5553
ிருந்தால	-10.5567
▁fundador	-10.5578
production	-10.5588
back	-10.5629
بو	-10.563
άθο	-10.5671
▁punt	-10.5674
വെന്ന	-10.5674
tudo	-10.5714
▁εξ	-10.5718
acy	-10.5726
പ്രവർത്തിക്കുന്ന	-10.5729
▁основно	-10.5732
▁கொண்ட	-10.576
dacht	-10.5775
ngon	-10.5785
▁кл	-10.5804
▁majorit	-10.5841
രായ	-10.5849
▁blive	-10.5872
▁വിക്കിപീഡിയയില	-10.5923
ают	-10.5981
سأل	-10.5998
ാനും	-10.6006
ற்று	-10.603
▁முறை	-10.606
ണെന്ന	-10.6097
σετε	-10.6102
ception	-10.6116
▁கொண்டிரு	-10.6155
▁lind	-10.6167
▁observ	-10.6171
▁snel	-10.6195
ogni	-10.6229
ள்ள	-10.6257
▁ಹೆಚ್ಚ	-10.6331
ebilirsin	-10.6349
▁control	-10.6386
ರಿಸ	-10.6395
yorsunuz	-10.6416
sprek	-10.6416
ತ್ತು	-10.6418
space	-10.6427
▁conosc	-10.6432
nummer	-10.6453
▁வார்த்தையை	-10.6455
wiki	-10.648
கட்டுரை	-10.6488
പ്പെട	-10.6491
▁herha	-10.6635
▁respe	-10.6647
ioso	-10.6852
ிருந்த	-10.686
▁bilgi	-10.6866
tisk	-10.688
▁bidra	-10.691
▁نفس	-10.692
▁predict	-10.6933
▁dispos	-10.6947
▁compute	-10.6957
▁strateg	-10.6968
വിടെ	-10.6975
▁diskussion	-10.6983
свобод	-10.6987
സിന	-10.6989
▁país	-10.6989
intelligen	-10.6994
ток	-10.7002
▁beskriv	-10.7002
liği	-10.7006
آخر	-10.7008
ieron	-10.7009
▁കഴിയു	-10.7011
▁கூட	-10.7012
▁cad	-10.7014
▁expli	-10.7015
▁அவர	-10.7016
лось	-10.7018
▁instant	-10.7018
▁нарцис	-10.7019
▁வேண்ட	-10.702
ística	-10.7022
▁செல்	-10.7023
▁बा	-10.7023
▁commun	-10.7024
крыт	-10.7024
▁ഉറപ്പ	-10.7024
▁identi	-10.7025
▁diffic	-10.7025
▁തിരുത്ത	-10.7025
▁ತಿಳಿದಿ	-10.7025
▁இணை	-10.7025
▁character	-10.7025
▁ಯಾವ	-10.7026
ுகின்ற	-10.7026
▁америк	-10.7026
σχολ	-10.7026
ശാസ്ത്ര	-10.7026
▁desenvolvi	-10.7026
▁optimiz	-10.7026
▁översväm	-10.7026
ميديا	-10.7026
மொழி	-10.7026
▁computador	-10.7026
▁confiáve	-10.7026
▁incroyable	-10.7026
▁özgür	-10.7026
▁πράγμα	-10.7026
▁கவலை	-10.7026
▁தொடர	-10.7026
▁ಮಾತನಾಡ	-10.7026
▁ರಹಸ್ಯ	-10.7026
▁ಸ್ಥಳ	-10.7026
▁ഇതിന	-10.7026
crítico	-10.7026
intéresse	-10.7026
manhã	-10.7026
muştu	-10.7026
rörd	-10.7026
schreiben	-10.7026
strijd	-10.7026
tijdschrift	-10.7026
tillförlitlighet	-10.7026
unidense	-10.7026
ήθηκ	-10.7026
ότητα	-10.7026
медленн	-10.7026
спасибо	-10.7026
стояни	-10.7026
اليابانية	-10.7026
خبار	-10.7026
طلاق	-10.7026
نظام	-10.7026
ियो	-10.7026
ுகிறீர்களா	-10.7026
ொன்ற	-10.7026
ುತ್ತಾರೆ	-10.7026
ೃ	-10.7026
ദിന	-10.7026
വസ്തു	-10.7026
സമൂഹ	-10.7026
▁applicazion	-10.7026
▁aquí	-10.7026
▁aristote	-10.7026
▁arrabbiat	-10.7026
▁believe	-10.7026
▁bröd	-10.7026
▁catégorie	-10.7026
▁cebuano	-10.7026
▁citizendium	-10.7026
▁conocimiento	-10.7026
▁correspond	-10.7026
▁countries	-10.7026
▁criança	-10.7026
▁descartes	-10.7026
▁encyclopedieën	-10.7026
▁episode	-10.7026
▁filosof	-10.7026
▁génial	-10.7026
▁herramienta	-10.7026
▁hjälp	-10.7026
▁immagin	-10.7026
▁initiative	-10.7026
▁jämför	-10.7026
▁kontroversiell	-10.7026
▁línea	-10.7026
▁lütfen	-10.7026
▁möchte	-10.7026
▁occasion	-10.7026
▁ontwikkel	-10.7026
▁ottimizzazione	-10.7026
▁particulier	-10.7026
▁photos	-10.7026
▁populaire	-10.7026
▁preocupa	-10.7026
▁problème	-10.7026
▁ragionament	-10.7026
▁randevu	-10.7026
▁recurso	-10.7026
▁regression	-10.7026
▁représentation	-10.7026
▁respective	-10.7026
▁restaurant	-10.7026
▁référence	-10.7026
▁résultat	-10.7026
▁sconcertat	-10.7026
▁skillnad	-10.7026
▁strauss	-10.7026
▁telegram	-10.7026
▁théorique	-10.7026
▁tradicionais	-10.7026
▁trovärdig	-10.7026
▁téléphon	-10.7026
▁ufficial	-10.7026
▁visitors	-10.7026
▁volontaire	-10.7026
▁volontari	-10.7026
▁wurzel	-10.7026
▁économi	-10.7026
▁évolution	-10.7026
▁önce	-10.7026
▁øjeblik	-10.7026
▁überflute	-10.7026
▁αριθμό	-10.7026
▁βάλτο	-10.7026
▁ζωή	-10.7026
▁κόρη	-10.7026
▁ξέρε	-10.7026
▁σπίτι	-10.7026
▁τυχερό	-10.7026
▁англ	-10.7026
▁беспокойтесь	-10.7026
▁викимедиа	-10.7026
▁вклад	-10.7026
▁декабр	-10.7026
▁знаю	-10.7026
▁книг	-10.7026
▁нужн	-10.7026
▁особенн	-10.7026
▁относи	-10.7026
▁повтори	-10.7026
▁потрясающ	-10.7026
▁призна	-10.7026
▁сказал	-10.7026
▁тупым	-10.7026
▁уэйлс	-10.7026
▁фонд	-10.7026
▁языке	-10.7026
▁языковы	-10.7026
▁январ	-10.7026
▁التخريب	-10.7026
▁المنزل	-10.7026
▁انخف	-10.7026
▁بالمائة	-10.7026
▁برنامج	-10.7026
▁للغاية	-10.7026
▁لويكيبيديا	-10.7026
▁نيويورك	-10.7026
▁देख	-10.7026
▁हूँ	-10.7026
▁இதற்க	-10.7026
▁இரண்ட	-10.7026
▁இருக்கிறது	-10.7026
▁உதாரணம	-10.7026
▁எடுத்துக்காட்ட	-10.7026
▁எப்போதும	-10.7026
▁கொள்ளுங்கள்	-10.7026
▁கோண	-10.7026
▁தவறு	-10.7026
▁தெரியாது	-10.7026
▁தொடங்க	-10.7026
▁நடக்கிறது	-10.7026
▁நர்சிஸ	-10.7026
▁பெரிய	-10.7026
▁மன்னிக்கவும்	-10.7026
▁முடியுமா	-10.7026
▁ரகசிய	-10.7026
▁வாழ்க்கைய	-10.7026
▁ಇಂಗ್ಲಿಷ್	-10.7026
▁ಎಲ್ಲವ	-10.7026
▁ಒಳ್ಳೆಯದು	-10.7026
▁ಚಿಂತಿಸಬೇಡಿ	-10.7026
▁ಜೀವನದಲ್ಲ	-10.7026
▁ದೌರ್ಜನ್ಯ	-10.7026
▁ಪಡೆಯ	-10.7026
▁ಮುಳುಗ	-10.7026
▁ರೀತಿ	-10.7026
▁ವಿವರಿಸ	-10.7026
▁ಸಂಪೂರ್ಣ	-10.7026
▁ಸಂಭಾಷಣೆಯ	-10.7026
▁ಸಾಧ್ಯವಿಲ್ಲ	-10.7026
▁ಸಾಮಾನ್ಯ	-10.7026
▁തുടര	-10.7026
▁നൽക	-10.7026
▁പദ്ധതി	-10.7026
▁പരീക്ഷ	-10.7026
▁വലിയ	-10.7026
▁വ്യക്ത	-10.7026
diğim	-10.7026
lägga	-10.7026
mídia	-10.7026
områden	-10.7026
organisation	-10.7026
uppgifter	-10.7026
στό	-10.7026
эксперт	-10.7026
ठ	-10.7026
▁accurate	-10.7026
▁challenge	-10.7026
▁controversial	-10.7026
▁disponibili	-10.7026
▁dispositivo	-10.7026
▁drøm	-10.7026
▁entschuldig	-10.7026
▁faktisk	-10.7026
▁funciona	-10.7026
▁genoemd	-10.7026
▁harvard	-10.7026
▁maintain	-10.7026
▁manipula	-10.7026
▁osserva	-10.7026
▁posibilidad	-10.7026
▁skribenter	-10.7026
▁spørgsmål	-10.7026
▁δύο	-10.7026
▁σκληρ	-10.7026
▁υπάρχ	-10.7026
▁запрос	-10.7026
▁красив	-10.7026
▁позже	-10.7026
▁следующ	-10.7026
▁существ	-10.7026
▁широк	-10.7026
▁ஆண்டி	-10.7026
▁கீழ	-10.7026
▁நர்சிசா	-10.7026
▁பார்க்க	-10.7026
▁மொழிகளில	-10.7026
▁விளக்க	-10.7026
▁வீடியோ	-10.7026
▁ಸುಂದರವಾಗಿದ್ದ	-10.7026
▁ആദ്യ	-10.7026
▁ആവർത്തിക്ക	-10.7026
▁ചതുപ്പുനില	-10.7026
▁തീരുമാന	-10.7026
▁പ്രവൃത്തി	-10.7026
▁ലഭിച്ച	-10.7026
▁ലേഖക	-10.7026
▁സന്തോഷ	-10.7026
marmelade	-10.7026
ίγο	-10.7026
ಬೇಕೆಂ	-10.7026
ഗ്രഹ	-10.7026
▁alcanz	-10.7026
▁biography	-10.7026
▁coordina	-10.7026
▁ederim	-10.7026
▁generalization	-10.7026
▁prochain	-10.7026
▁risponde	-10.7026
▁الجيد	-10.7026
▁ഭാഷയ	-10.7026
organisé	-10.7026
üğü	-10.7026
▁attempt	-10.7026
▁bellezza	-10.7026
▁encarta	-10.7026
▁ettiği	-10.7026
▁serviço	-10.7026
▁smuk	-10.7026
▁sunulma	-10.7026
▁назва	-10.7026
▁معينة	-10.7026
ː	-10.7026
уловк	-10.7026
نسب	-10.7026
نسخ	-10.7026
भाग्य	-10.7026
▁بأن	-10.7026
مساعد	-10.7026
ப்புக்கள	-10.7026
ೇವೆ	-10.7026
▁giorno	-10.7026
▁natuur	-10.7026
▁rätt	-10.7026
▁settembre	-10.7026
▁viktig	-10.7026
▁домой	-10.7026
▁случа	-10.7026
▁فقد	-10.7026
▁واحد	-10.7026
γεια	-10.7026
▁collega	-10.7026
▁guerra	-10.7026
▁podría	-10.7026
▁suffis	-10.7026
▁запу	-10.7026
ஞ்ச	-10.7026
▁решени	-10.7026
▁കാര്യങ്ങൾ	-10.7026
gräns	-10.7026
أخذ	-10.7026
نوع	-10.7026
▁mangiar	-10.7026
▁moyen	-10.7026
κολ	-10.7026
▁temperat	-10.7026
▁écout	-10.7026
▁interroga	-10.7026
▁persoon	-10.7026
histoire	-10.7026
خبراء	-10.7026
▁ajout	-10.7026
▁answer	-10.7026
▁ഉപയോഗിച്ച	-10.7026
▁together	-10.7026
▁മൂന്ന	-10.7026
▁buluşma	-10.7026
▁cancella	-10.7026
▁explicit	-10.7026
▁fourni	-10.7026
▁geniş	-10.7026
▁health	-10.7026
▁portugu	-10.7026
▁изменени	-10.7026
▁kære	-10.7026
▁phusi	-10.7026
▁തെറ്റ	-10.7026
▁catalan	-10.7026
▁figlia	-10.7026
▁forsknings	-10.7026
▁lisans	-10.7026
▁annonc	-10.7026
▁tekrar	-10.7026
▁comprar	-10.7026
▁lecteurs	-10.7026
▁yazı	-10.7026
▁geheim	-10.7026
▁handling	-10.7026
▁cumpl	-10.7026
▁rédigé	-10.7026
بحث	-10.7026
▁kommentar	-10.7026
▁occurred	-10.7026
▁താളുക	-10.7026
▁baidu	-10.7026
▁sprog	-10.7026
▁trevlig	-10.7026
sequence	-10.7026
инг	-10.7026
▁knapp	-10.7026
punkt	-10.7026
tığın	-10.7026
▁replace	-10.7026
▁shift	-10.7026
▁characteristic	-10.7026
▁macchin	-10.7026
▁sapere	-10.7026
▁scherp	-10.7026
▁album	-10.7026
▁गया	-10.7026
ημερι	-10.7026
▁procura	-10.7026
▁græde	-10.7026
▁hiç	-10.7026
▁répon	-10.7026
▁implement	-10.7026
▁expan	-10.7026
▁articol	-10.7026
▁successful	-10.7026
▁academ	-10.7026
▁resources	-10.7026
▁σήμ	-10.7026
ാറുണ്ട്	-10.7026
▁effet	-10.7026
▁visual	-10.7026
▁distint	-10.7026
▁стол	-10.7026
بدأ	-10.7026
▁instance	-10.7026
▁substantial	-10.7026
▁voglio	-10.7026
▁देन	-10.7026
▁ഇന്ത്യൻ	-10.7026
▁john	-10.7026
▁είχα	-10.7026
▁തിരഞ്ഞെടുത്ത	-10.7027
▁professor	-10.7027
ച്ചയായ	-10.7027
▁preferi	-10.7027
connect	-10.7027
ğım	-10.7027
▁упр	-10.7027
▁വീട്ടി	-10.7027
acuerdo	-10.7027
▁ವ್ಯಕ್ತಿಯ	-10.7027
سبب	-10.7027
▁hazırlan	-10.7027
ಟ್ಟ	-10.7027
▁propia	-10.7027
نظر	-10.7027
▁acquis	-10.7027
▁kullandığı	-10.7027
щенны	-10.7027
▁clear	-10.7027
▁inicial	-10.7027
▁ದಿನ	-10.7027
▁meeting	-10.7027
▁prince	-10.7027
▁çalış	-10.7027
будет	-10.7027
न्य	-10.7027
ിലേക്ക	-10.7027
ണിത	-10.7027
▁которую	-10.7027
▁extern	-10.7028
▁οποί	-10.7028
▁متأكد	-10.7028
▁calidad	-10.7028
▁قائ	-10.7028
▁licencia	-10.7028
▁repeat	-10.7028
▁capacité	-10.7028
▁credit	-10.7028
▁decline	-10.7028
▁flora	-10.7028
▁brand	-10.7028
▁search	-10.7028
ಕ್ಷ	-10.7028
▁правок	-10.7028
encyklopedi	-10.7028
ುತ್ತಿದ್ದರೆ	-10.7028
ಾಗುತ್ತದೆ	-10.7028
▁ricev	-10.7029
▁κλαί	-10.7029
▁transform	-10.7029
▁down	-10.7029
▁tratta	-10.7029
▁journalist	-10.7029
▁yapıl	-10.7029
▁മാറ്റ	-10.7029
▁possu	-10.7029
▁συμ	-10.7029
▁exception	-10.703
▁insult	-10.703
▁hope	-10.703
▁collective	-10.703
▁birisi	-10.703
കുറിച്ച	-10.703
▁excit	-10.703
▁universitaire	-10.703
▁என்றால்	-10.703
▁contribuinte	-10.703
्रोत	-10.703
âc	-10.703
▁geliyor	-10.703
charge	-10.703
▁suivant	-10.703
lévi	-10.7031
▁ovv	-10.7031
▁yeni	-10.7031
kleid	-10.7031
▁categorie	-10.7031
▁central	-10.7031
wetenschappelijk	-10.7031
▁driv	-10.7031
▁சொல்வத	-10.7032
▁economic	-10.7032
▁declar	-10.7032
▁trend	-10.7032
▁réseau	-10.7032
▁زر	-10.7032
▁slut	-10.7032
▁root	-10.7032
▁argue	-10.7032
▁série	-10.7033
ിരിക്കുന്നു	-10.7033
σκε	-10.7033
▁php	-10.7033
ங்களில்	-10.7033
orrow	-10.7033
▁conoce	-10.7033
▁пожал	-10.7033
projektet	-10.7034
▁energi	-10.7034
▁juin	-10.7034
skrev	-10.7034
▁enlace	-10.7034
▁പ്രിയ	-10.7034
сша	-10.7034
▁أمي	-10.7034
▁stabili	-10.7035
▁uppslagsverket	-10.7035
கூடிய	-10.7035
▁rosen	-10.7035
▁categoria	-10.7036
▁båd	-10.7036
▁reduc	-10.7036
▁रा	-10.7036
▁أفعل	-10.7036
▁niente	-10.7036
▁frente	-10.7037
ούσε	-10.7037
▁bonito	-10.7037
werkers	-10.7037
▁मत	-10.7038
▁имею	-10.7038
▁culturelle	-10.7038
▁illustration	-10.7038
▁droit	-10.7039
▁barack	-10.7039
▁scus	-10.7039
▁போகிற	-10.7039
▁manual	-10.704
▁frei	-10.704
▁vivant	-10.704
▁arqui	-10.704
▁tenha	-10.7041
ξη	-10.7041
ുകളു	-10.7041
▁leitor	-10.7041
▁πρό	-10.7041
▁revision	-10.7042
tionary	-10.7042
▁मी	-10.7042
▁guardi	-10.7043
ൻഡ	-10.7043
▁play	-10.7043
▁honom	-10.7044
▁cobert	-10.7044
▁fuente	-10.7044
▁entire	-10.7045
▁vedere	-10.7046
▁fille	-10.7046
▁huge	-10.7046
▁créé	-10.7047
слышал	-10.7047
▁prins	-10.7047
▁distribution	-10.7048
▁يوم	-10.7049
ουμε	-10.7049
▁prender	-10.705
▁orienta	-10.705
▁broad	-10.7052
வரி	-10.7052
▁grec	-10.7053
нул	-10.7053
▁frequente	-10.7054
▁gust	-10.7055
▁പരിഹാരത്തിലാണ	-10.7056
▁translat	-10.706
▁glad	-10.7062
▁regler	-10.7064
▁apert	-10.7066
▁സുഹൃത്ത	-10.7068
▁circ	-10.7068
▁complexit	-10.707
▁eerst	-10.7073
vloe	-10.7076
▁divin	-10.7079
тупой	-10.7081
▁ಚಿ	-10.7081
▁abri	-10.7082
ebbe	-10.7082
uyorum	-10.7083
▁systemati	-10.7089
▁açıkla	-10.7092
▁aumenta	-10.7092
clam	-10.7093
தூ	-10.7096
можно	-10.7102
nyme	-10.7106
▁pubblicazion	-10.7107
▁empreg	-10.7112
▁sorte	-10.7114
bilidad	-10.7116
▁отправ	-10.7137
▁возможност	-10.7138
▁attribut	-10.7139
▁strument	-10.7162
▁drie	-10.7187
▁moo	-10.7192
όλη	-10.7197
kost	-10.721
▁motore	-10.7221
▁betyd	-10.7233
▁incontr	-10.7248
▁maak	-10.7251
محرري	-10.726
▁selecti	-10.7268
nehme	-10.727
relate	-10.7272
diante	-10.7282
▁استخدامه	-10.7291
▁entendí	-10.7321
സ്സ	-10.7381
▁traditionel	-10.7389
issance	-10.7402
ttim	-10.7449
▁ನೀಡಲ	-10.7459
▁άρ	-10.7471
▁disput	-10.7514
▁primari	-10.7517
▁विकि	-10.7522
obre	-10.7553
hird	-10.7562
▁ಮಾಡುವುದ	-10.7581
പ്പെടുന്ന	-10.7581
ല്ലാത്ത	-10.759
duzid	-10.7596
ник	-10.7605
▁padr	-10.7621
▁ತಿನ್ನಲ	-10.7622
▁médi	-10.7643
മുണ്ട	-10.7749
ಾರಿ	-10.7786
▁oggett	-10.7797
▁вялы	-10.7812
spil	-10.7826
ряд	-10.7835
க்கப்பட்ட	-10.7862
▁சந்திப்பு	-10.7913
ಕಾರ	-10.7946
ποια	-10.7967
ன்று	-10.7995
مستخدمي	-10.7998
нять	-10.7999
▁lembr	-10.8003
▁ஒருவருக்க	-10.8016
▁lieve	-10.8027
gosto	-10.8082
▁முறைய	-10.8085
ίες	-10.8145
വാന	-10.8161
▁إنه	-10.8236
▁பார	-10.8441
▁relativ	-10.8466
▁പ്രവർത്തിക്ക	-10.8515
மையான	-10.8558
▁получит	-10.8592
▁notabl	-10.8614
▁لديه	-10.867
frag	-10.8715
ecteur	-10.8778
கிறேன்	-10.8813
чит	-10.894
går	-10.896
▁ತಿನ್ನ	-10.9001
▁котор	-10.9004
пор	-10.904
ೀರಿ	-10.9115
ниц	-10.9138
ستق	-10.9214
pendent	-10.9235
▁άλλ	-10.9251
сообщество	-10.9283
ً	-10.9301
மூல	-10.9308
▁associ	-10.931
▁значит	-10.9315
▁stru	-10.9357
attribu	-10.9382
▁sistem	-10.9406
▁പറഞ്ഞ	-10.9407
▁recei	-10.9447
▁возможно	-10.9456
▁ನುಡಿಗಟ್ಟು	-10.9459
▁telef	-10.9465
▁decirl	-10.9471
▁fantasti	-10.9476
humor	-10.9479
▁говорит	-10.9486
frequent	-10.9489
ಿರಿ	-10.9498
▁إجرا	-10.9508
إنجليزية	-10.9509
வதற்க	-10.9512
▁uppslagsverk	-10.9513
ग्र	-10.9514
▁classifi	-10.9514
▁κάτ	-10.9517
പോയി	-10.9518
▁ഉപയോഗിക്കുന്ന	-10.9518
▁விட	-10.9519
▁தெரிய	-10.9519
▁παρ	-10.952
▁success	-10.952
ில்லை	-10.9521
▁ക്രൂര	-10.9522
▁содержи	-10.9524
ശേഷം	-10.9524
ступ	-10.9524
ಥ	-10.9525
û	-10.9525
пусти	-10.9525
middel	-10.9525
▁occur	-10.9526
▁സുന്ദര	-10.9526
жды	-10.9526
„	-10.9526
▁ಆಶ್ಚರ್ಯ	-10.9526
▁ಫ್ಲಮ್ಮ	-10.9526
ൗ	-10.9526
പ്രധാന	-10.9526
▁disagree	-10.9526
▁extrême	-10.9526
▁árbol	-10.9526
▁கொடு	-10.9526
▁விரல்கள	-10.9526
▁ಅತ್ಯುತ್ತಮ	-10.9526
▁ജീവ	-10.9526
▁തുടക്ക	-10.9526
▁പരസ്പര	-10.9526
▁വിജ്ഞാന	-10.9526
ರಿತು	-10.9526
▁computazion	-10.9526
▁quotidi	-10.9526
▁اعتبار	-10.9526
▁உறுதி	-10.9526
▁கூர்மைய	-10.9526
▁ಕೋನ	-10.9526
▁ಪಡೆದ	-10.9526
▁ಪ್ರಶ್ನ	-10.9526
▁ವಾಕ್ಯ	-10.9526
▁കാഴ്ചപ്പാട	-10.9526
▁പെട്ടെന്നു	-10.9526
▁മുഴുവ	-10.9526
▁വാക്കിന	-10.9526
disciplina	-10.9526
ifrån	-10.9526
kæmpe	-10.9526
pequeño	-10.9526
plosion	-10.9526
protegidos	-10.9526
verbazingwekkend	-10.9526
wikiprogramvara	-10.9526
écriture	-10.9526
ə	-10.9526
ˌ	-10.9526
γραμμα	-10.9526
δήποτε	-10.9526
ουμπί	-10.9526
нупеди	-10.9526
рандеву	-10.9526
традиционн	-10.9526
إعجاب	-10.9526
اشتر	-10.9526
النزاعات	-10.9526
ديسمبر	-10.9526
متخصصين	-10.9526
مناقش	-10.9526
منفرج	-10.9526
रूप	-10.9526
ிழைத்திருத்தத்தி	-10.9526
ಣ್ಣ	-10.9526
ಾತ್ರಿ	-10.9526
മുമ്പ	-10.9526
വിരുദ്ധ	-10.9526
▁absolut	-10.9526
▁adequada	-10.9526
▁advertis	-10.9526
▁amélior	-10.9526
▁annually	-10.9526
▁anônimo	-10.9526
▁artificiel	-10.9526
▁attività	-10.9526
▁beautiful	-10.9526
▁bekymre	-10.9526
▁capítulo	-10.9526
▁caratteristic	-10.9526
▁clásic	-10.9526
▁component	-10.9526
▁divertida	-10.9526
▁divulg	-10.9526
▁dynamic	-10.9526
▁dönü	-10.9526
▁dünya	-10.9526
▁educado	-10.9526
▁enciclopédic	-10.9526
▁erklär	-10.9526
▁evolve	-10.9526
▁expression	-10.9526
▁felaktig	-10.9526
▁flytande	-10.9526
▁frygtelig	-10.9526
▁funktion	-10.9526
▁gesehen	-10.9526
▁grammati	-10.9526
▁hypothesi	-10.9526
▁implicit	-10.9526
▁impossible	-10.9526
▁inductive	-10.9526
▁intellectu	-10.9526
▁istiyorsan	-10.9526
▁kenmerken	-10.9526
▁mantenimiento	-10.9526
▁mañana	-10.9526
▁mevcuttur	-10.9526
▁necesaria	-10.9526
▁nécessit	-10.9526
▁organisms	-10.9526
▁photograph	-10.9526
▁político	-10.9526
▁practice	-10.9526
▁professional	-10.9526
▁relationship	-10.9526
▁représente	-10.9526
▁riferimento	-10.9526
▁semelhante	-10.9526
▁smaragde	-10.9526
▁sofistike	-10.9526
▁structural	-10.9526
▁sábado	-10.9526
▁sépar	-10.9526
▁sürüm	-10.9526
▁tidsskriftet	-10.9526
▁término	-10.9526
▁título	-10.9526
▁türkiye	-10.9526
▁understood	-10.9526
▁uppmärksam	-10.9526
▁verkligen	-10.9526
▁vrouw	-10.9526
▁wikiproject	-10.9526
▁çünkü	-10.9526
▁élevé	-10.9526
▁ögonblick	-10.9526
▁œuvre	-10.9526
▁έκαν	-10.9526
▁εγκυκλοπαίδει	-10.9526
▁εκπληκτικ	-10.9526
▁μένα	-10.9526
▁παρακαλ	-10.9526
▁πρόσβασ	-10.9526
▁σίγουρ	-10.9526
▁σαββατοκύριακο	-10.9526
▁στιγμή	-10.9526
▁συνεχίσε	-10.9526
▁φορές	-10.9526
▁όνομ	-10.9526
▁большинств	-10.9526
▁возьм	-10.9526
▁времени	-10.9526
▁встретить	-10.9526
▁групп	-10.9526
▁завтра	-10.9526
▁заяви	-10.9526
▁зву	-10.9526
▁зрения	-10.9526
▁ноябр	-10.9526
▁объя	-10.9526
▁описа	-10.9526
▁оцен	-10.9526
▁ошиб	-10.9526
▁перевод	-10.9526
▁положении	-10.9526
▁получает	-10.9526
▁помочь	-10.9526
▁приятно	-10.9526
▁просмотра	-10.9526
▁сентябр	-10.9526
▁систем	-10.9526
▁ситуаци	-10.9526
▁соглас	-10.9526
▁спрашива	-10.9526
▁сторон	-10.9526
▁أصدقائ	-10.9526
▁الأخرى	-10.9526
▁الأسبوع	-10.9526
▁البرنامج	-10.9526
▁المتحدة	-10.9526
▁مجتمع	-10.9526
▁نارسيس	-10.9526
▁उन्हे	-10.9526
▁कैस	-10.9526
▁खुश	-10.9526
▁परियोजना	-10.9526
▁पाठ	-10.9526
▁लगता	-10.9526
▁शब्द	-10.9526
▁संस्करण	-10.9526
▁होगा	-10.9526
▁ஆகிய	-10.9526
▁இருப்பதாக	-10.9526
▁எதையாவது	-10.9526
▁கடந்து	-10.9526
▁சாப்பிட	-10.9526
▁செய்யப்பட்ட	-10.9526
▁சொன்ன	-10.9526
▁நபர	-10.9526
▁பதிவு	-10.9526
▁பெற்றேன்	-10.9526
▁மகிழ்ச்சியா	-10.9526
▁முயற்சி	-10.9526
▁மெதுவா	-10.9526
▁வகைய	-10.9526
▁வருந்துகிறேன்	-10.9526
▁வாக்கியங்கள	-10.9526
▁ಆಹಾರ	-10.9526
▁ಇಬ್ಬರ	-10.9526
▁ಕ್ಷಮಿಸಿ	-10.9526
▁ದೊಡ್ಡ	-10.9526
▁ನಡೆಯುತ್ತಿ	-10.9526
▁ನಿರರ್ಗಳವಾಗ	-10.9526
▁ಪ್ರಾರಂಭಿಸಿದಳು	-10.9526
▁ಮದುವೆಯ	-10.9526
▁ಮೂಲಕ	-10.9526
▁ಸಂಖ್ಯೆ	-10.9526
▁ಸಂತೋಷ	-10.9526
▁ಸರಿಯಾಗಿ	-10.9526
▁ಸುಂದರ	-10.9526
▁അധിക	-10.9526
▁അവലംബ	-10.9526
▁ഒപ്	-10.9526
▁പുതിയ	-10.9526
▁പൂർണ്ണമായ	-10.9526
▁മനോഹരമായ	-10.9526
▁മെല്ലിയ	-10.9526
▁ലേഖനങ്ങളെഴുത	-10.9526
▁വിവാഹ	-10.9526
▁സംഭാഷണ	-10.9526
▁സഹായിക്ക	-10.9526
▁സ്വാഗതം	-10.9526
wikileaks	-10.9526
émission	-10.9526
ıyorsun	-10.9526
مختلف	-10.9526
مصدر	-10.9526
क्ष	-10.9526
டிக்கைய	-10.9526
ട്യൂ	-10.9526
▁august	-10.9526
▁besök	-10.9526
▁biosphere	-10.9526
▁ciascun	-10.9526
▁commercial	-10.9526
▁configura	-10.9526
▁counterp	-10.9526
▁dirigido	-10.9526
▁düzel	-10.9526
▁ecosystem	-10.9526
▁einfach	-10.9526
▁endroit	-10.9526
▁enojado	-10.9526
▁främst	-10.9526
▁hawaii	-10.9526
▁iğrenç	-10.9526
▁kvalite	-10.9526
▁mensaje	-10.9526
▁polémic	-10.9526
▁ragione	-10.9526
▁recommend	-10.9526
▁scorpions	-10.9526
▁ursprung	-10.9526
▁örnek	-10.9526
▁καταλάβ	-10.9526
▁συμβαίν	-10.9526
▁σχεδ	-10.9526
▁включ	-10.9526
▁занимал	-10.9526
▁многи	-10.9526
▁обуча	-10.9526
▁понима	-10.9526
▁результат	-10.9526
▁руководств	-10.9526
▁статус	-10.9526
▁указан	-10.9526
▁النرجس	-10.9526
▁طويل	-10.9526
▁كبير	-10.9526
▁அர்த்த	-10.9526
▁அவற்றி	-10.9526
▁ஆரம்ப	-10.9526
▁எல்லா	-10.9526
▁பொருள்	-10.9526
▁வாழ்	-10.9526
▁ಗಾಡಿಯ	-10.9526
▁ആരംഭിച്ച	-10.9526
▁ഭാഗ്യ	-10.9526
▁മന്ദഗതിയില	-10.9526
▁വാക്കുകള	-10.9526
▁വിരലുക	-10.9526
▁സൗകര്യ	-10.9526
connaît	-10.9526
سؤال	-10.9526
ுவீர்கள்	-10.9526
വിജ്ഞാനകോശ	-10.9526
ാന്ത	-10.9526
▁dimension	-10.9526
▁déplace	-10.9526
▁keskin	-10.9526
▁standard	-10.9526
▁μπορούσε	-10.9526
▁μόν	-10.9526
▁задач	-10.9526
▁науки	-10.9526
▁مذهل	-10.9526
▁सवा	-10.9526
▁காண	-10.9526
▁டெர்	-10.9526
▁ಕೆಳ	-10.9526
معرفة	-10.9526
ைகளை	-10.9526
▁address	-10.9526
▁approche	-10.9526
▁manifesta	-10.9526
▁resolve	-10.9526
▁πηγ	-10.9526
▁வெளியிட	-10.9526
tjän	-10.9526
ृष्	-10.9526
மெர	-10.9526
▁arregl	-10.9526
▁conduct	-10.9526
▁imagina	-10.9526
▁milliard	-10.9526
▁époque	-10.9526
▁ecological	-10.9526
▁reunión	-10.9526
▁sverige	-10.9526
▁énorm	-10.9526
▁الوقت	-10.9526
▁ಹಾಗೆ	-10.9526
▁കാര	-10.9526
ഷ്ട	-10.9526
▁ajudar	-10.9526
▁register	-10.9526
▁πάω	-10.9526
gebied	-10.9526
stående	-10.9526
▁establecid	-10.9526
▁πριν	-10.9526
نشر	-10.9526
▁fehler	-10.9526
▁lycklig	-10.9526
▁சொல்லுங்கள்	-10.9526
familiar	-10.9526
க்கப்படுகின்ற	-10.9526
▁begrep	-10.9526
▁okej	-10.9526
▁xvii	-10.9526
▁zengin	-10.9526
▁denomina	-10.9526
▁federal	-10.9526
▁funciones	-10.9526
▁guys	-10.9526
▁étudi	-10.9526
γαλ	-10.9526
استمر	-10.9526
▁muestra	-10.9526
▁redistribu	-10.9526
▁demasiad	-10.9526
▁copiar	-10.9526
حاول	-10.9526
крат	-10.9526
▁fichier	-10.9526
▁necessari	-10.9526
▁vocale	-10.9526
▁kennis	-10.9526
قانون	-10.9526
▁argoment	-10.9526
▁aspett	-10.9526
▁solicita	-10.9526
▁вандализм	-10.9526
▁evaluat	-10.9526
continent	-10.9526
▁അതുകൊണ്ട	-10.9526
▁doctor	-10.9526
▁preserve	-10.9526
▁terrain	-10.9526
▁okay	-10.9526
▁cobri	-10.9526
▁oprindel	-10.9526
▁stream	-10.9526
▁aardig	-10.9526
▁neerland	-10.9526
stelling	-10.9526
▁gemiddeld	-10.9526
▁hjem	-10.9526
▁oublie	-10.9526
▁racine	-10.9526
nomial	-10.9526
▁kelimesini	-10.9526
▁vestido	-10.9526
▁patient	-10.9526
▁russi	-10.9526
▁dimentica	-10.9526
▁keep	-10.9526
▁bodies	-10.9526
işim	-10.9526
▁wurde	-10.9526
▁egoist	-10.9526
▁elkaar	-10.9526
▁ξαν	-10.9526
▁conduta	-10.9526
▁japan	-10.9526
▁paradox	-10.9526
cellular	-10.9526
موقف	-10.9526
▁سمعت	-10.9526
γενικ	-10.9526
▁genetic	-10.9526
ающи	-10.9526
▁examin	-10.9526
▁profes	-10.9526
▁perfect	-10.9526
▁ദൈ	-10.9526
▁relevan	-10.9526
▁рук	-10.9526
▁guida	-10.9526
▁portail	-10.9526
▁ligesom	-10.9526
▁possess	-10.9526
▁спросить	-10.9526
▁maanden	-10.9526
▁release	-10.9526
يبكي	-10.9526
▁sekund	-10.9526
▁yemek	-10.9526
▁vänster	-10.9526
▁flow	-10.9526
▁proceso	-10.9526
▁இருக்கிறா	-10.9526
▁ótim	-10.9526
▁analog	-10.9526
▁silver	-10.9526
ವಹಿಸ	-10.9527
▁evitan	-10.9527
▁കഴിക്ക	-10.9527
▁കഴിയുമോ	-10.9527
▁мечт	-10.9527
▁conocid	-10.9527
▁ಕಲಿ	-10.9527
ಟ್ಟಿಗೆ	-10.9527
▁മെയ	-10.9527
▁olması	-10.9527
▁herzen	-10.9527
▁welche	-10.9527
▁விக்கி	-10.9527
▁சரியா	-10.9527
▁domaine	-10.9527
▁overall	-10.9527
skrivandet	-10.9527
▁smile	-10.9527
ambigu	-10.9527
▁complain	-10.9527
cuál	-10.9527
▁ganze	-10.9527
▁langsam	-10.9527
▁أعرف	-10.9527
▁الجديد	-10.9527
dıkları	-10.9527
▁propio	-10.9527
felice	-10.9527
▁publicatie	-10.9527
▁analis	-10.9527
▁power	-10.9527
▁connais	-10.9527
▁suppos	-10.9527
▁ruim	-10.9527
▁أحب	-10.9527
▁издание	-10.9527
▁dicendo	-10.9527
▁luister	-10.9527
▁probabl	-10.9527
▁miglia	-10.9527
▁insider	-10.9527
▁provenien	-10.9527
▁മകള	-10.9527
▁sorri	-10.9527
▁encanta	-10.9527
ുണ്ടാവ	-10.9527
reliable	-10.9527
ηθεί	-10.9528
▁kennen	-10.9528
ριστ	-10.9528
▁ortak	-10.9528
▁racco	-10.9528
▁chicos	-10.9528
▁close	-10.9528
▁fingre	-10.9528
▁فضلك	-10.9528
▁пар	-10.9528
▁diamante	-10.9528
▁avril	-10.9528
صبح	-10.9528
member	-10.9528
धित	-10.9528
▁pleure	-10.9528
▁vector	-10.9528
▁algeme	-10.9528
▁atual	-10.9528
▁mistake	-10.9528
▁мире	-10.9528
nkelijk	-10.9528
▁branch	-10.9528
▁interesse	-10.9528
▁модел	-10.9528
ೋಟ	-10.9528
ധാര	-10.9528
أخير	-10.9528
▁season	-10.9528
▁lektion	-10.9529
▁samtale	-10.9529
▁comigo	-10.9529
▁மட்டும	-10.9529
abul	-10.9529
morgon	-10.9529
▁deliver	-10.9529
▁αστε	-10.9529
▁algae	-10.9529
arabi	-10.9529
أنواع	-10.9529
▁croissan	-10.9529
▁septi	-10.9529
trouw	-10.9529
fejl	-10.9529
▁navega	-10.9529
مثير	-10.9529
▁deseja	-10.9529
▁ക്രൂരമായ	-10.9529
கூட்ட	-10.9529
lève	-10.9529
▁vaya	-10.9529
▁svår	-10.953
▁typical	-10.953
▁έφ	-10.953
▁enviar	-10.953
folk	-10.953
▁فأن	-10.953
▁tremend	-10.953
र्क	-10.953
▁produi	-10.953
▁വെയ	-10.953
فاد	-10.953
▁added	-10.953
▁précis	-10.953
▁издан	-10.953
▁வேலையை	-10.9531
تطو	-10.9531
▁verbete	-10.9531
▁இருந்தார்	-10.9531
निय	-10.9531
▁ιδ	-10.9531
▁gråt	-10.9531
▁продал	-10.9531
▁bäst	-10.9531
▁successiv	-10.9531
▁tedesc	-10.9531
▁parmaklar	-10.9531
▁tekst	-10.9531
▁besser	-10.9531
▁begon	-10.9531
comod	-10.9532
elukk	-10.9532
ayım	-10.9532
αμμέν	-10.9532
▁полн	-10.9532
▁أيضا	-10.9532
▁georg	-10.9533
▁culturels	-10.9533
trial	-10.9533
▁μέσ	-10.9534
ത്തേക്ക	-10.9534
▁responsabil	-10.9534
▁asombr	-10.9534
redakt	-10.9534
avond	-10.9535
▁chora	-10.9535
▁subset	-10.9535
▁coloni	-10.9535
▁förklara	-10.9536
▁noticia	-10.9536
▁yaşa	-10.9536
vinkla	-10.9536
drig	-10.9537
▁meddel	-10.9537
▁eau	-10.9537
▁substan	-10.9539
▁ouvert	-10.9539
▁olaca	-10.9539
مكن	-10.954
சால	-10.9541
▁descob	-10.9541
تلق	-10.9542
▁heav	-10.9543
οντα	-10.9543
вши	-10.9543
▁assure	-10.9543
▁title	-10.9544
▁terrestr	-10.9544
режде	-10.9545
▁veloc	-10.9546
rgun	-10.9547
▁reputa	-10.9547
publicering	-10.9548
тур	-10.9548
ακρ	-10.9548
▁resume	-10.9548
▁يحد	-10.9548
▁permanen	-10.9551
tubr	-10.9552
نشأ	-10.9552
ಲಿಸ	-10.9553
нуть	-10.9553
▁aldı	-10.9554
▁lära	-10.9554
▁interfa	-10.9554
▁sollte	-10.9554
▁fange	-10.9556
▁curt	-10.9557
carga	-10.9557
▁redazion	-10.9559
достат	-10.9559
▁forstå	-10.956
▁filh	-10.9561
ுரை	-10.9564
knol	-10.9564
роде	-10.9565
▁dourad	-10.9566
pornografi	-10.9573
▁tyck	-10.9573
▁associazion	-10.9574
▁ജോലിയ	-10.9575
▁الحر	-10.9575
ristiques	-10.9576
പ്രദ	-10.9578
▁vandaa	-10.958
▁ملا	-10.9582
рол	-10.9587
▁piac	-10.9592
hæn	-10.9593
▁ನುಡಿಗಟ್ಟುಗಳ	-10.9593
▁debate	-10.9593
▁dejlig	-10.9595
ogram	-10.9597
▁consegu	-10.96
terior	-10.9601
incol	-10.9603
vested	-10.9603
▁gitme	-10.9604
heart	-10.9613
റിവു	-10.9616
gged	-10.9618
▁goril	-10.9623
▁biografi	-10.9633
▁north	-10.9638
ренд	-10.9643
▁forbi	-10.9647
▁raise	-10.9649
▁стал	-10.9651
skussionssidorna	-10.9652
▁важн	-10.9657
حالات	-10.9658
rived	-10.9659
▁abend	-10.9701
▁dilde	-10.9703
servrar	-10.9707
плач	-10.9708
▁ακούσε	-10.9711
praz	-10.9717
ಕೆಲಸವ	-10.9727
ചക	-10.9746
läsare	-10.9749
▁பயனர்கள	-10.9762
качестве	-10.9764
▁сообществ	-10.9775
▁cruza	-10.9797
▁ordnu	-10.9808
▁possibil	-10.9912
▁различны	-10.9922
стран	-10.9952
▁nostr	-10.9953
▁большо	-11.0009
ισμένο	-11.0017
rivati	-11.0069
comunicaci	-11.007
യാസ	-11.0138
zij	-11.0201
▁ίσ	-11.0213
вот	-11.0231
сон	-11.0251
▁പറയുന്നത	-11.0273
▁வார்த்தைய	-11.0309
▁എഴുത	-11.0328
ικα	-11.0329
▁bilmiyor	-11.0368
▁എന്നതിന	-11.038
▁responsib	-11.0383
▁получ	-11.0438
▁pesquisador	-11.0565
▁работал	-11.0594
▁afspr	-11.0604
த்திட்ட	-11.0819
thématique	-11.0981
monit	-11.1052
орк	-11.1154
peter	-11.1195
ிட்டத்த	-11.1295
▁الذك	-11.1319
▁занят	-11.1347
цензирован	-11.1352
വർക്കു	-11.141
▁κάπ	-11.1426
ದಿದ್ದ	-11.1443
▁சந்திப்ப	-11.1447
▁incident	-11.147
alités	-11.1496
▁вял	-11.1593
▁എഴുതുന്ന	-11.1839
▁facil	-11.1894
▁ಕೇಳಿದ	-11.1903
▁ನಲ್ಲಿದ್ದ	-11.1936
ൂടി	-11.2048
engew	-11.2072
தற்	-11.2085
▁costrui	-11.2111
▁മാർഗ	-11.2221
▁содержа	-11.2221
χισ	-11.2239
information	-11.2271
autres	-11.2283
▁различ	-11.2332
▁θέλ	-11.2355
▁possibl	-11.2379
obert	-11.25
▁publi	-11.2506
ætte	-11.2518
▁качеств	-11.2536
акт	-11.2575
▁الذه	-11.2598
▁ακού	-11.2607
авлени	-11.2662
▁america	-11.2671
важно	-11.268
diskussionssidor	-11.2686
▁مشاهد	-11.2686
▁hakkın	-11.2695
▁അതിശയകരമാ	-11.2709
▁gør	-11.272
▁glob	-11.2724
▁editad	-11.2739
▁тупо	-11.2762
ൃ	-11.2783
ditoriale	-11.2788
جمع	-11.2793
▁வழங்க	-11.2793
mplice	-11.2806
ങ്കിലു	-11.2812
സമവാക്യ	-11.2823
brug	-11.2828
െക്കുറിച്ച	-11.2839
▁ρωτήσ	-11.2843
▁الكلم	-11.2843
ப்பட்டிரு	-11.2844
чти	-11.2847
யில	-11.2848
▁wetenschappe	-11.2849
ístico	-11.285
ktadır	-11.285
கிறோம்	-11.2851
▁വിഷമിക്കേണ്ട	-11.2853
▁φράσ	-11.2853
▁அல்ல	-11.2854
encyklop	-11.2854
ministrator	-11.2855
américa	-11.2856
▁ഉപയോഗിക്കാ	-11.2857
▁hazır	-11.2857
apporter	-11.2857
▁करें	-11.2857
ख	-11.2858
ാണെങ്കിൽ	-11.2859
ωρε	-11.2859
roducti	-11.2859
കാര്യ	-11.2859
интерес	-11.2859
грамм	-11.2859
▁biblioteca	-11.2859
▁ಉಚ್ಚ	-11.2859
ലാഭ	-11.2859
ಘ	-11.2859
ಳುತ್ತಿರುವ	-11.2859
▁αμβλ	-11.2859
▁στρατ	-11.2859
▁രേഖ	-11.2859
коммерческ	-11.2859
സംസ്കാര	-11.2859
▁координ	-11.2859
▁உழை	-11.2859
▁நம்ப	-11.2859
▁കഠിന	-11.2859
▁തുടർ	-11.2859
▁സമർപ്പിക്ക	-11.2859
ográfic	-11.2859
струк	-11.2859
ப்படுத்தி	-11.2859
ீட்டு	-11.2859
ಠ	-11.2859
ುರಿದು	-11.2859
ംവിധ	-11.2859
തെന്ത	-11.2859
▁kritiser	-11.2859
▁yakalay	-11.2859
▁yapamayaca	-11.2859
▁éventuelle	-11.2859
▁комментари	-11.2859
▁определ	-11.2859
▁отсутств	-11.2859
▁справочн	-11.2859
▁функци	-11.2859
▁المسجل	-11.2859
▁निर्मा	-11.2859
▁सम्ब	-11.2859
▁கவனிப்ப	-11.2859
▁சிக்கியிரு	-11.2859
▁ಅಭಿಪ್ರಾಯ	-11.2859
▁ಚಂದಾದಾರ	-11.2859
▁ಪ್ರೀತಿ	-11.2859
▁കണക്കാക്ക	-11.2859
▁നിർദ്ദേശ	-11.2859
▁മീറ്റിംഗ	-11.2859
▁വിവരിക്ക	-11.2859
atrimo	-11.2859
begyndt	-11.2859
blieft	-11.2859
cipitation	-11.2859
disclose	-11.2859
diyseniz	-11.2859
déterminé	-11.2859
guldbröd	-11.2859
gwekkend	-11.2859
lagstiftning	-11.2859
opdracht	-11.2859
perspektiv	-11.2859
publikationer	-11.2859
redacteur	-11.2859
uppfattningar	-11.2859
ίστη	-11.2859
αιρετ	-11.2859
ασκευ	-11.2859
διάφορ	-11.2859
θεια	-11.2859
λεξικ	-11.2859
λεπτ	-11.2859
μενική	-11.2859
σκοπ	-11.2859
σμένη	-11.2859
φορε	-11.2859
όμου	-11.2859
администратор	-11.2859
графия	-11.2859
естественно	-11.2859
знаком	-11.2859
ировать	-11.2859
история	-11.2859
объект	-11.2859
печат	-11.2859
просит	-11.2859
ссылки	-11.2859
ставил	-11.2859
центр	-11.2859
ённым	-11.2859
أصابع	-11.2859
الإسبانية	-11.2859
تجاوز	-11.2859
تشجيع	-11.2859
دراسة	-11.2859
درجة	-11.2859
مجهول	-11.2859
مسؤول	-11.2859
واراي	-11.2859
َ	-11.2859
ओ	-11.2859
भाष	-11.2859
र्थ	-11.2859
ोटे	-11.2859
டிப்பின	-11.2859
ுகிறார்	-11.2859
ಬೇಕಾದ	-11.2859
ಿಸುತ್ತೇನೆ	-11.2859
ಿಸುವುದು	-11.2859
ುತ್ತಾನೆ	-11.2859
ುತ್ತೇವೆ	-11.2859
കൊണ്ടാണ്	-11.2859
കൊള്ളാം	-11.2859
ക്കാവുന്ന	-11.2859
ങ	-11.2859
പേക്ഷിച്ച	-11.2859
പ്പെടുത്തുന്നത	-11.2859
വർഗ്ഗ	-11.2859
സ്രോതസ്സുകള	-11.2859
ിയാഴ്ച	-11.2859
▁acadêmica	-11.2859
▁accademic	-11.2859
▁acompanha	-11.2859
▁acımasız	-11.2859
▁affect	-11.2859
▁agriculture	-11.2859
▁allégori	-11.2859
▁already	-11.2859
▁altoparlant	-11.2859
▁ancienne	-11.2859
▁announce	-11.2859
▁approfondi	-11.2859
▁arkadaşı	-11.2859
▁atribui	-11.2859
▁aussehen	-11.2859
▁background	-11.2859
▁balkon	-11.2859
▁başladı	-11.2859
▁bekymringer	-11.2859
▁belangrijk	-11.2859
▁beschäftigt	-11.2859
▁bibliotek	-11.2859
▁británica	-11.2859
▁característica	-11.2859
▁caractère	-11.2859
▁coexisti	-11.2859
▁cofundador	-11.2859
▁coloquial	-11.2859
▁compétence	-11.2859
▁conectado	-11.2859
▁conflict	-11.2859
▁consolidat	-11.2859
▁constitution	-11.2859
▁conséquen	-11.2859
▁croyance	-11.2859
▁değişiklikler	-11.2859
▁diagram	-11.2859
▁dispiace	-11.2859
▁drunkn	-11.2859
▁dynamique	-11.2859
▁déconcerté	-11.2859
▁découverte	-11.2859
▁dérivé	-11.2859
▁düğmesin	-11.2859
▁editörleri	-11.2859
▁encyclopédique	-11.2859
▁enregistré	-11.2859
▁episódio	-11.2859
▁escuchando	-11.2859
▁especifica	-11.2859
▁evlenme	-11.2859
▁exploit	-11.2859
▁expérience	-11.2859
▁forbløffende	-11.2859
▁frågor	-11.2859
▁giornali	-11.2859
▁grubu	-11.2859
▁huvud	-11.2859
▁högskol	-11.2859
▁idéologie	-11.2859
▁ihåg	-11.2859
▁infantil	-11.2859
▁internacional	-11.2859
▁interprétation	-11.2859
▁introdui	-11.2859
▁istemiyor	-11.2859
▁juillet	-11.2859
▁juridi	-11.2859
▁kriterie	-11.2859
▁krydse	-11.2859
▁könntest	-11.2859
▁linterweb	-11.2859
▁läuft	-11.2859
▁lørdag	-11.2859
▁magnifique	-11.2859
▁matemati	-11.2859
▁matrimoni	-11.2859
▁matériel	-11.2859
▁mythologi	-11.2859
▁móvil	-11.2859
▁naziksiniz	-11.2859
▁negotiation	-11.2859
▁nächste	-11.2859
▁objects	-11.2859
▁ocupado	-11.2859
▁opération	-11.2859
▁organisatie	-11.2859
▁panorama	-11.2859
▁parallèle	-11.2859
▁parlementaire	-11.2859
▁periódico	-11.2859
▁philip	-11.2859
▁practica	-11.2859
▁preguiços	-11.2859
▁propuesta	-11.2859
▁préoccup	-11.2859
▁prêmio	-11.2859
▁pseudo	-11.2859
▁purpose	-11.2859
▁reinvestment	-11.2859
▁rencontr	-11.2859
▁ricorda	-11.2859
▁riktlinjer	-11.2859
▁samenwerking	-11.2859
▁satisfactor	-11.2859
▁schoonheid	-11.2859
▁scientist	-11.2859
▁settimana	-11.2859
▁simbol	-11.2859
▁strength	-11.2859
▁sufficient	-11.2859
▁supprimé	-11.2859
▁tecniche	-11.2859
▁teknisk	-11.2859
▁tillgänglig	-11.2859
▁técnic	-11.2859
▁ubuntu	-11.2859
▁ukraini	-11.2859
▁underlätta	-11.2859
▁understand	-11.2859
▁végéta	-11.2859
▁wikivoyage	-11.2859
▁yakalama	-11.2859
▁yeterli	-11.2859
▁yolculu	-11.2859
▁électronique	-11.2859
▁étonnant	-11.2859
▁étymologi	-11.2859
▁άμαξα	-11.2859
▁ήθελ	-11.2859
▁αναπ	-11.2859
▁αύριο	-11.2859
▁βοηθήσ	-11.2859
▁γλυκιά	-11.2859
▁δουλεύε	-11.2859
▁εμένα	-11.2859
▁εξηγεί	-11.2859
▁επαναλάβε	-11.2859
▁θυμηθείτε	-11.2859
▁κομμάτι	-11.2859
▁λήμμα	-11.2859
▁μαρία	-11.2859
▁μιλήσε	-11.2859
▁νομίζω	-11.2859
▁ξέρω	-11.2859
▁παίρνε	-11.2859
▁περάσε	-11.2859
▁προτέρων	-11.2859
▁στις	-11.2859
▁συνεχίσου	-11.2859
▁όμορφ	-11.2859
▁август	-11.2859
▁балл	-11.2859
▁взаимодействи	-11.2859
▁википедией	-11.2859
▁внешн	-11.2859
▁выгляде	-11.2859
▁градусов	-11.2859
▁деятельност	-11.2859
▁добровольцев	-11.2859
▁единственн	-11.2859
▁запис	-11.2859
▁защит	-11.2859
▁использовал	-11.2859
▁исправлени	-11.2859
▁классически	-11.2859
▁компани	-11.2859
▁красот	-11.2859
▁крупны	-11.2859
▁кэш	-11.2859
▁миллион	-11.2859
▁мужчин	-11.2859
▁наград	-11.2859
▁нейросет	-11.2859
▁нравится	-11.2859
▁пальцы	-11.2859
▁поддерживае	-11.2859
▁подожди	-11.2859
▁позволя	-11.2859
▁польск	-11.2859
▁прецедент	-11.2859
▁принят	-11.2859
▁происходит	-11.2859
▁разработанн	-11.2859
▁редактировани	-11.2859
▁реклам	-11.2859
▁сложн	-11.2859
▁сотрудничеств	-11.2859
▁статистик	-11.2859
▁суббот	-11.2859
▁сэнгер	-11.2859
▁успе	-11.2859
▁цитиру	-11.2859
▁шутк	-11.2859
▁эффект	-11.2859
▁أخبرت	-11.2859
▁أظهر	-11.2859
▁إضافي	-11.2859
▁الألمانية	-11.2859
▁الإناث	-11.2859
▁العلماء	-11.2859
▁القادم	-11.2859
▁الويكيبيدي	-11.2859
▁بريتانيكا	-11.2859
▁رؤيت	-11.2859
▁زائر	-11.2859
▁سانجر	-11.2859
▁سيجنثالر	-11.2859
▁موثوق	-11.2859
▁موعد	-11.2859
▁يحرره	-11.2859
▁يونيو	-11.2859
▁अपने	-11.2859
▁अमेरिक	-11.2859
▁परेशान	-11.2859
▁बिलकुल	-11.2859
▁वास्त	-11.2859
▁वेब	-11.2859
▁संदेश	-11.2859
▁हिस्स	-11.2859
▁அடிப்படை	-11.2859
▁அனைவர	-11.2859
▁அறிமுகப்படுத்த	-11.2859
▁அழகான	-11.2859
▁இடத்த	-11.2859
▁இனிம	-11.2859
▁உணவு	-11.2859
▁உண்மையில	-11.2859
▁எளி	-11.2859
▁கூறலாம்	-11.2859
▁கூறுகிற	-11.2859
▁கொள்க	-11.2859
▁சூழ	-11.2859
▁சோதனை	-11.2859
▁டிகிரிக்கு	-11.2859
▁தகவல்கள	-11.2859
▁தயவு	-11.2859
▁தோற்றம	-11.2859
▁பார்க்கிறேன்	-11.2859
▁பிரமாதமா	-11.2859
▁புத்தகத்த	-11.2859
▁பெயர	-11.2859
▁பொதுவா	-11.2859
▁மனிதன	-11.2859
▁முனை	-11.2859
▁மூளை	-11.2859
▁மெல்லி	-11.2859
▁மேற்கொள்ள	-11.2859
▁வகையானது	-11.2859
▁வழக்க	-11.2859
▁விரைவ	-11.2859
▁ಅತ್ಯ	-11.2859
▁ಅಸಮಾಧಾನ	-11.2859
▁ಕೊನೆಯ	-11.2859
▁ಗೊತ್ತ	-11.2859
▁ಪ್ರದೇಶ	-11.2859
▁ಭಾವಿಸ	-11.2859
▁ಮಾರಿದ್ದೀರಿ	-11.2859
▁ಮೊದಲ	-11.2859
▁ಯೋಚಿಸ	-11.2859
▁ಸಹಾಯ	-11.2859
▁അടിസ്ഥാന	-11.2859
▁അഭിപ്രായ	-11.2859
▁അവസാന	-11.2859
▁ആളുക	-11.2859
▁ഇരിക്കുന്ന	-11.2859
▁ഉള്ളടക്ക	-11.2859
▁ഒരിക്ക	-11.2859
▁കിടക്ക	-11.2859
▁ക്ഷമിക്കണം	-11.2859
▁ഗുണാങ്ക	-11.2859
▁ചിന്തിക്ക	-11.2859
▁ചോദ്യ	-11.2859
▁തയ്യാറാ	-11.2859
▁നിങ്ങളോടൊപ്പ	-11.2859
▁നിങ്ങൾക്കറിയാം	-11.2859
▁നിർമ്മിച്ച	-11.2859
▁പതിപ്പുകള	-11.2859
▁പൊതുവായ	-11.2859
▁പ്രകൃതി	-11.2859
▁ഭൗതിക	-11.2859
▁മോശമായ	-11.2859
▁രഹസ്യ	-11.2859
▁രാത്രി	-11.2859
▁റോക്ക്	-11.2859
▁റോന്ദ	-11.2859
▁വാരാന്ത്യ	-11.2859
▁വിവരങ്ങള	-11.2859
▁വിവിധ	-11.2859
▁സന്നദ്ധ	-11.2859
▁സാധാരണ	-11.2859
▁സുഹൃത്തുക്കളു	-11.2859
▁സ്കൂളി	-11.2859
vinkling	-11.2859
أحضر	-11.2859
المجتمع	-11.2859
انتقاد	-11.2859
حديث	-11.2859
قترح	-11.2859
مقابل	-11.2859
نطاق	-11.2859
▁amostra	-11.2859
▁californi	-11.2859
▁confundi	-11.2859
▁consiglia	-11.2859
▁constitue	-11.2859
▁decentraliz	-11.2859
▁gebeurt	-11.2859
▁imagine	-11.2859
▁législat	-11.2859
▁offensiv	-11.2859
▁preoccupa	-11.2859
▁ringrazia	-11.2859
▁schleppend	-11.2859
▁separate	-11.2859
▁suggér	-11.2859
▁upphovsrätt	-11.2859
▁verwijder	-11.2859
▁äußerst	-11.2859
▁şaşırt	-11.2859
▁συναντήσ	-11.2859
▁владе	-11.2859
▁известн	-11.2859
▁количеств	-11.2859
▁массов	-11.2859
▁наличи	-11.2859
▁написан	-11.2859
▁опубликова	-11.2859
▁предоставл	-11.2859
▁продолжи	-11.2859
▁публикует	-11.2859
▁пыта	-11.2859
▁скаж	-11.2859
▁собира	-11.2859
▁собственно	-11.2859
▁телефон	-11.2859
▁ужасн	-11.2859
▁الادعاء	-11.2859
▁حلم	-11.2859
▁يجعل	-11.2859
▁लिख	-11.2859
▁எங்கிருந்த	-11.2859
▁என்னவென்ற	-11.2859
▁ஒலிக்க	-11.2859
▁சென்ற	-11.2859
▁சொற்றொடர்களை	-11.2859
▁நிலத்தி	-11.2859
▁முழுவதும	-11.2859
▁வெள்ள	-11.2859
▁ಪುನರಾವರ್ತಿಸ	-11.2859
▁ಪ್ರಿಯ	-11.2859
▁ಭಾಗವ	-11.2859
▁ಸುಲಭವಾ	-11.2859
▁അത്ഭുത	-11.2859
▁ഉണ്ടായ	-11.2859
▁ഉണ്ടാവ	-11.2859
▁എന്നിങ്ങനെ	-11.2859
▁എളുപ്പ	-11.2859
▁ചുവട	-11.2859
▁നിഷ്പക്ഷ	-11.2859
▁പുഞ്ചിരി	-11.2859
▁പുസ്തക	-11.2859
▁റഫറൻസ	-11.2859
▁സംസാരിക്കുന്ന	-11.2859
▁സാഹചര്യ	-11.2859
▁സൃഷ്ടിക്ക	-11.2859
kategori	-11.2859
literalmente	-11.2859
prueba	-11.2859
schrij	-11.2859
φόρ	-11.2859
ещё	-11.2859
تكرار	-11.2859
جادل	-11.2859
வேளை	-11.2859
ாத்திர	-11.2859
்நிலை	-11.2859
ಷ್ಟಪಟ್ಟ	-11.2859
▁arrêt	-11.2859
▁automática	-11.2859
▁confront	-11.2859
▁confunde	-11.2859
▁convirti	-11.2859
▁côté	-11.2859
▁dinheiro	-11.2859
▁distinguish	-11.2859
▁enough	-11.2859
▁hård	-11.2859
▁ilustra	-11.2859
▁jusqu	-11.2859
▁koordin	-11.2859
▁mauvais	-11.2859
▁painting	-11.2859
▁pergunto	-11.2859
▁probleem	-11.2859
▁reconnu	-11.2859
▁reject	-11.2859
▁rigtig	-11.2859
▁répéter	-11.2859
▁spanish	-11.2859
▁svolg	-11.2859
▁αμερ	-11.2859
▁αξίζ	-11.2859
▁δουλέψ	-11.2859
▁волну	-11.2859
▁доброволь	-11.2859
▁обнаруж	-11.2859
▁остав	-11.2859
▁принц	-11.2859
▁утвержд	-11.2859
▁франц	-11.2859
▁чувств	-11.2859
▁البيان	-11.2859
▁العلمي	-11.2859
▁الموقع	-11.2859
▁विश्व	-11.2859
▁அன்ப	-11.2859
▁இருவரு	-11.2859
▁உடன	-11.2859
▁காட்ட	-11.2859
▁ಪ್ರಯತ್ನ	-11.2859
▁ಪ್ರವ	-11.2859
▁ആരെയ	-11.2859
▁കമ്പ്യൂട്ട	-11.2859
▁ജീവിത	-11.2859
▁തിരക്കിലാ	-11.2859
▁നാല്	-11.2859
▁മുന്നോട്ട	-11.2859
▁യഥാർത്ഥ	-11.2859
▁വണ്ടി	-11.2859
▁വരുത്ത	-11.2859
▁വ്യത്യസ്ത	-11.2859
راقب	-11.2859
مشاريع	-11.2859
വെള്ള	-11.2859
▁comscore	-11.2859
▁descriveva	-11.2859
▁dérange	-11.2859
▁détermina	-11.2859
▁esbozo	-11.2859
▁estábamos	-11.2859
▁oprette	-11.2859
▁presuppo	-11.2859
▁vietnam	-11.2859
▁virtual	-11.2859
▁vocabul	-11.2859
▁üzere	-11.2859
▁место	-11.2859
▁باللغ	-11.2859
▁حياتك	-11.2859
▁ಬದಲಾ	-11.2859
▁പിന്ന	-11.2859
▁പെരു	-11.2859
▁ശരിയാ	-11.2859
følge	-11.2859
ladım	-11.2859
lämplig	-11.2859
sarbete	-11.2859
sprach	-11.2859
тельств	-11.2859
لطيف	-11.2859
ंटर	-11.2859
वाह	-11.2859
स्ट	-11.2859
பெரும்	-11.2859
രൂപ	-11.2859
▁adelante	-11.2859
▁afecta	-11.2859
▁bureau	-11.2859
▁début	-11.2859
▁femmes	-11.2859
▁glück	-11.2859
▁negatie	-11.2859
▁pornographic	-11.2859
▁rechaza	-11.2859
▁regular	-11.2859
▁stimul	-11.2859
▁succede	-11.2859
▁söyleyebilir	-11.2859
▁πλημμ	-11.2859
▁места	-11.2859
▁понял	-11.2859
▁البريد	-11.2859
▁الليلة	-11.2859
▁بخير	-11.2859
▁تخبر	-11.2859
▁مشا	-11.2859
▁புன்னகை	-11.2859
▁மறு	-11.2859
▁ದೂರ	-11.2859
▁ಬೆಳ	-11.2859
▁എവിടെയാ	-11.2859
▁ക്രൈബ	-11.2859
▁ക്ഷീണ	-11.2859
▁സത്യ	-11.2859
hånd	-11.2859
üçü	-11.2859
βάλ	-11.2859
ಬೇಡ	-11.2859
ಿವಂತ	-11.2859
▁blague	-11.2859
▁hjemmeside	-11.2859
▁klassi	-11.2859
▁kontakt	-11.2859
▁lätt	-11.2859
▁official	-11.2859
▁prakti	-11.2859
▁réunion	-11.2859
▁veracidad	-11.2859
▁вещ	-11.2859
▁работает	-11.2859
▁الصفح	-11.2859
▁தலை	-11.2859
▁ಒಪ್ಪಿಕೊ	-11.2859
സിദ്ധ	-11.2859
▁décision	-11.2859
▁jugée	-11.2859
▁klinken	-11.2859
▁kräv	-11.2859
▁modify	-11.2859
▁épouse	-11.2859
▁θυμ	-11.2859
▁позд	-11.2859
▁جنو	-11.2859
▁ಕ್ಷಣ	-11.2859
wɪk	-11.2859
λογ	-11.2859
വെബ്	-11.2859
▁assolut	-11.2859
▁diferencia	-11.2859
▁energetic	-11.2859
▁ocorre	-11.2859
▁ಬಹು	-11.2859
confirma	-11.2859
طبق	-11.2859
عربية	-11.2859
വർഷ	-11.2859
▁author	-11.2859
▁barnpornograf	-11.2859
▁financia	-11.2859
▁lucrati	-11.2859
▁mágico	-11.2859
▁tabell	-11.2859
▁الحظ	-11.2859
▁അർത്ഥമാക്കുന്ന	-11.2859
lanserade	-11.2859
усил	-11.2859
▁competi	-11.2859
▁intrusi	-11.2859
▁transcend	-11.2859
▁жизн	-11.2859
fitting	-11.2859
اتصال	-11.2859
الطبع	-11.2859
ंख्य	-11.2859
ುಸ್ತ	-11.2859
▁induttiv	-11.2859
▁påverka	-11.2859
▁riporta	-11.2859
▁strong	-11.2859
▁söylediğin	-11.2859
▁بأك	-11.2859
▁കാര്യങ്ങള	-11.2859
verstanden	-11.2859
▁identify	-11.2859
▁rappel	-11.2859
▁traffic	-11.2859
▁evolu	-11.2859
ترجم	-11.2859
▁affirm	-11.2859
▁citizen	-11.2859
▁tarafsız	-11.2859
▁ನಿಲ್ಲಿಸ	-11.2859
▁fundamental	-11.2859
▁habitual	-11.2859
▁representative	-11.2859
▁savaş	-11.2859
feasible	-11.2859
பெற்று	-11.2859
പേരു	-11.2859
▁college	-11.2859
▁coordena	-11.2859
▁händer	-11.2859
▁president	-11.2859
▁upptagen	-11.2859
▁ಮಧ್ಯ	-11.2859
malıyı	-11.2859
necesario	-11.2859
കേട്ട	-11.2859
▁bisogn	-11.2859
▁groot	-11.2859
▁profond	-11.2859
▁интересно	-11.2859
▁hyperlink	-11.2859
ಿರುಗ	-11.2859
▁länder	-11.2859
▁obscen	-11.2859
▁permissi	-11.2859
▁produkti	-11.2859
▁vergiss	-11.2859
▁évalu	-11.2859
▁وجه	-11.2859
▁സുന്ദരിയാ	-11.2859
▁sweet	-11.2859
▁located	-11.2859
▁profund	-11.2859
▁televisi	-11.2859
▁первы	-11.2859
▁institut	-11.2859
▁confond	-11.2859
▁matemátic	-11.2859
▁давай	-11.2859
▁djup	-11.2859
▁frecuen	-11.2859
▁raíz	-11.2859
▁மூன்ற	-11.2859
▁cyber	-11.2859
▁intimida	-11.2859
▁çev	-11.2859
ficiente	-11.2859
تناول	-11.2859
حسب	-11.2859
قاط	-11.2859
▁menciona	-11.2859
▁uitspr	-11.2859
▁categorías	-11.2859
▁исходя	-11.2859
▁cinema	-11.2859
▁crude	-11.2859
▁மதிப்ப	-11.2859
ಾಣಿ	-11.2859
grafía	-11.2859
▁multiple	-11.2859
▁pigro	-11.2859
▁darwin	-11.2859
▁quickly	-11.2859
▁circula	-11.2859
▁superior	-11.2859
▁توقف	-11.2859
▁две	-11.2859
▁تهد	-11.2859
▁style	-11.2859
▁abandon	-11.2859
lícita	-11.2859
▁hilf	-11.2859
▁surprise	-11.2859
account	-11.2859
▁cuore	-11.2859
▁prevede	-11.2859
▁wetland	-11.2859
▁implica	-11.2859
rveill	-11.2859
▁combinat	-11.2859
▁succè	-11.2859
britanni	-11.2859
▁imprim	-11.2859
▁sapev	-11.2859
▁смотрел	-11.2859
▁redattor	-11.2859
▁bevatte	-11.286
▁tatlı	-11.286
▁outlier	-11.286
ಿದ್ದಳು	-11.286
▁killar	-11.286
▁progetta	-11.286
▁array	-11.286
▁probeer	-11.286
سعيد	-11.286
▁groei	-11.286
▁редакционн	-11.286
▁matéria	-11.286
▁truppe	-11.286
sprechen	-11.286
▁belirt	-11.286
▁escala	-11.286
eggia	-11.286
▁gedaan	-11.286
▁intonation	-11.286
▁abiert	-11.286
νίδι	-11.286
▁dernier	-11.286
▁اجتماع	-11.286
▁majeur	-11.286
▁spéci	-11.286
▁καλέ	-11.286
▁выпустил	-11.286
▁japon	-11.286
▁patrone	-11.286
▁minorit	-11.286
uwelijk	-11.286
▁souligne	-11.286
▁bereik	-11.286
▁ലേഖനത്തിനു	-11.286
▁lançad	-11.286
▁simplifi	-11.286
▁snow	-11.286
▁समान	-11.286
▁struttur	-11.286
▁നിലവി	-11.286
▁förändra	-11.286
ственн	-11.286
ονομ	-11.286
▁concentra	-11.286
▁prêt	-11.286
▁தவிர	-11.286
снова	-11.286
أساسي	-11.286
▁ayrı	-11.286
▁female	-11.286
دفع	-11.286
▁обычн	-11.286
ocrati	-11.286
▁área	-11.286
▁sustain	-11.286
уйс	-11.286
▁climati	-11.286
▁evlili	-11.286
▁expose	-11.286
именно	-11.286
▁выходны	-11.286
proportion	-11.286
ക്കുമെന്ന	-11.286
λάβε	-11.2861
ல்லிய	-11.2861
السياسية	-11.2861
▁compil	-11.2861
▁estadístic	-11.2861
▁famoso	-11.2861
ेंगे	-11.2861
ಹಾಕ	-11.2861
▁verdrin	-11.2861
പ്പുകള	-11.2861
▁objecti	-11.2861
കൂട്ട	-11.2861
▁aborda	-11.2861
вели	-11.2861
▁degree	-11.2861
▁relacione	-11.2861
▁πολλ	-11.2861
▁atualiza	-11.2861
▁spirit	-11.2861
▁interesante	-11.2861
▁содержимо	-11.2861
تصر	-11.2861
ಗತಿಯ	-11.2861
πημέν	-11.2861
κόσμ	-11.2862
▁estatístic	-11.2862
ಕೋರ	-11.2862
χειρ	-11.2862
ительным	-11.2862
▁fotograf	-11.2862
beslut	-11.2862
▁govern	-11.2862
▁etablerad	-11.2862
ходят	-11.2862
▁കേരളത്തി	-11.2862
истическ	-11.2863
▁عشر	-11.2863
▁değiştirilme	-11.2863
hulp	-11.2863
▁reçu	-11.2863
sequent	-11.2863
rijk	-11.2863
بدا	-11.2863
dispens	-11.2863
▁diverge	-11.2863
▁appliqu	-11.2863
▁octob	-11.2864
க்குரிய	-11.2864
تجاه	-11.2864
▁hør	-11.2864
▁historical	-11.2864
स्क	-11.2864
▁compost	-11.2864
capacit	-11.2864
balance	-11.2864
▁inscreve	-11.2864
▁evidenc	-11.2864
▁болот	-11.2864
ിഷമിക്കേണ്ടതില്ല	-11.2865
▁القيا	-11.2865
debería	-11.2865
▁الآل	-11.2865
▁descreve	-11.2866
ിച്ചിട	-11.2866
▁hurtig	-11.2866
▁ಬೇರ	-11.2866
perdón	-11.2866
▁adresse	-11.2866
sphere	-11.2866
▁пят	-11.2866
▁основан	-11.2866
точност	-11.2866
ıştır	-11.2866
لمحررين	-11.2866
ಲ್ಲವೇ	-11.2866
▁கற்றுக்	-11.2866
விடுங்கள்	-11.2866
കയറി	-11.2866
▁точк	-11.2867
осла	-11.2867
réparé	-11.2867
▁historiador	-11.2867
▁пришл	-11.2867
▁narcissism	-11.2868
▁fransk	-11.2868
سبت	-11.2869
த்தமானத	-11.287
sturb	-11.287
▁sensitiv	-11.287
காச	-11.287
▁kluge	-11.2871
▁magisk	-11.2871
cultiv	-11.2871
▁definizion	-11.2871
ாண்டி	-11.2871
baixo	-11.2872
▁routi	-11.2874
▁racist	-11.2874
▁tartış	-11.2875
nutze	-11.2875
سمع	-11.2875
▁выдел	-11.2877
रेज	-11.2878
fahr	-11.2879
kväll	-11.2882
إجراء	-11.2884
ದಾಯ	-11.2884
▁aktiv	-11.2885
eriore	-11.2886
▁istediğin	-11.2887
solution	-11.2888
زمي	-11.2888
▁hayatın	-11.2888
▁المجا	-11.289
▁உங்களுட	-11.2891
овало	-11.2892
▁сид	-11.2894
▁güzelliğ	-11.2895
beskrivning	-11.2901
க்கூடாது	-11.2902
negoci	-11.2903
▁acusad	-11.2904
▁ಬುದ್	-11.2912
ോടു	-11.2912
▁konuşma	-11.2914
νησ	-11.2914
говорить	-11.2915
ശ്വസിക്ക	-11.2918
▁بهذ	-11.2921
வழங்கி	-11.2924
▁свободно	-11.2928
நிலமா	-11.2928
கொண்டது	-11.294
partition	-11.2942
publique	-11.2953
underrepresented	-11.2962
▁الرو	-11.2962
frihet	-11.2984
أصل	-11.2994
зависимости	-11.3016
недел	-11.3018
▁predictiv	-11.3031
bildning	-11.3037
▁linguaggi	-11.3041
▁segund	-11.3051
informação	-11.3063
underbar	-11.3064
artisan	-11.3096
användarna	-11.312
resultat	-11.3177
reprise	-11.3184
▁описывают	-11.3206
്മയു	-11.3209
ublic	-11.3235
held	-11.3287
уби	-11.3369
പിടിക്ക	-11.3391
▁внес	-11.3395
▁источникам	-11.3495
πιστ	-11.3525
▁содержани	-11.354
▁മാർഗമാണ	-11.354
ില്ലെന്ന	-11.3616
मुद	-11.3635
lmodig	-11.3639
▁உருவாக்கப்பட்ட	-11.3702
لسل	-11.3757
▁dépend	-11.3897
لجن	-11.405
desarrollado	-11.4111
strict	-11.4193
ண்மைய	-11.4381
▁подобн	-11.4672
▁anlamadı	-11.4869
▁ಮಾಡುತ್ತೀರ	-11.5118
▁mathémati	-11.5166
▁probabil	-11.5215
madıysa	-11.5246
▁colabor	-11.5607
ുണ്ടെങ്കി	-11.5883
പോകുന്നത	-11.5892
تسمي	-11.595
▁membr	-11.6029
▁içeriğ	-11.6055
författar	-11.6146
▁reproduc	-11.6285
▁научн	-11.632
▁ಬಯಸುತ್ತ	-11.7046
▁практи	-11.7245
مقالات	-11.7252
språk	-11.726
telefon	-11.7269
användare	-11.7272
tribución	-11.7274
administra	-11.7282
encyclopédie	-11.7288
ografia	-11.7511
▁независим	-11.7609
▁موسوع	-11.7657
возможн	-11.7693
ложение	-11.7725
scribe	-11.7736
ಗೊಳಿಸ	-11.7742
▁наибол	-11.7747
മാണി	-11.7797
▁слыш	-11.7797
▁критик	-11.7808
تراجع	-11.7809
▁பயன்படு	-11.7814
ppositi	-11.7821
ത്തെപ്പറ്റി	-11.7822
▁illustrati	-11.7822
projekt	-11.7837
▁информаци	-11.7842
bruik	-11.7851
públic	-11.7852
▁ελεύθερ	-11.7853
تأكد	-11.7853
▁முடியா	-11.7854
▁മാതൃ	-11.7855
тически	-11.7856
▁ವ್ಯಕ್ತಿ	-11.7856
▁തിരഞ്ഞെടു	-11.7857
▁ഇന്ത്യ	-11.7857
accurac	-11.7857
▁спрос	-11.7858
▁ഉപയോഗ	-11.7858
جتماعي	-11.7858
▁культу	-11.7858
▁anthrop	-11.7858
▁நண்பர	-11.7858
ografis	-11.7859
anılmaz	-11.7859
▁вандал	-11.7859
▁hyperli	-11.7859
μπορ	-11.7859
bileceğin	-11.7859
▁അർത്ഥമ	-11.7859
ഛ	-11.7859
▁hänvis	-11.7859
skydds	-11.7859
യോഗ്യമ	-11.7859
▁происхо	-11.7859
ирующи	-11.7859
ಯೋಜ	-11.7859
▁भाग	-11.7859
▁விளைவ	-11.7859
▁ದೇವದೂತ	-11.7859
▁കൊടു	-11.7859
▁വിഭാഗ	-11.7859
твёр	-11.7859
டம்பர	-11.7859
நிலைமை	-11.7859
பேச்சுப்பக்க	-11.7859
ளூமாக்ஸ	-11.7859
்றைப்படுத்தப்படு	-11.7859
ಯೋಜನೆಗಳ	-11.7859
್ರಗಳಿ	-11.7859
നീയമാ	-11.7859
സാമാന്യ	-11.7859
▁aconteci	-11.7859
▁atribuí	-11.7859
▁gouvern	-11.7859
▁ilgilenmiyor	-11.7859
▁luidspreker	-11.7859
▁ontmoeting	-11.7859
▁üzgün	-11.7859
▁παρακολο	-11.7859
▁вирджи	-11.7859
▁посвящённ	-11.7859
▁привилеги	-11.7859
▁சாங்கர	-11.7859
▁நிறுத்த	-11.7859
▁வாக்கியத்த	-11.7859
▁ಪ್ರಯಾಣಿಸ	-11.7859
▁ಭೇಟಿ	-11.7859
▁ವಿಷಯ	-11.7859
▁ಸಂಧಿಸ	-11.7859
▁അഭിനന്ദിക്കുന്ന	-11.7859
▁ആരംഭിക്കുന്നത	-11.7859
▁ചെറ	-11.7859
▁പഠിക്കു	-11.7859
▁വസ്ത്രധാരണ	-11.7859
namnrymd	-11.7859
ométri	-11.7859
ttighed	-11.7859
wijzig	-11.7859
антиэлитар	-11.7859
интерв	-11.7859
медлительн	-11.7859
счаст	-11.7859
साइट	-11.7859
தந்திரம	-11.7859
முறைகள	-11.7859
യോഗിച്ച	-11.7859
▁alcança	-11.7859
▁anlatabilir	-11.7859
▁bağımsız	-11.7859
▁costitui	-11.7859
▁efficien	-11.7859
▁exclusiv	-11.7859
▁görüşme	-11.7859
▁hiérarchi	-11.7859
▁impossibil	-11.7859
▁inconsist	-11.7859
▁intelectua	-11.7859
▁kapitalis	-11.7859
▁långsam	-11.7859
▁narsizay	-11.7859
▁padroniza	-11.7859
▁remplac	-11.7859
▁straordinari	-11.7859
▁tanımlama	-11.7859
▁wiskunde	-11.7859
▁yiyecekler	-11.7859
▁βιβλιο	-11.7859
▁βλέπ	-11.7859
▁εβδομάδ	-11.7859
▁κρατήσ	-11.7859
▁νάρκισσ	-11.7859
▁προσπαθ	-11.7859
▁υποθέ	-11.7859
▁φανταστ	-11.7859
▁встав	-11.7859
▁надёжн	-11.7859
▁называем	-11.7859
▁направля	-11.7859
▁обобщени	-11.7859
▁обращ	-11.7859
▁парламент	-11.7859
▁персона	-11.7859
▁повседневно	-11.7859
▁постоянн	-11.7859
▁расшир	-11.7859
▁редактиру	-11.7859
▁специально	-11.7859
▁универс	-11.7859
▁योगदानकर्ता	-11.7859
▁அதிநவீன	-11.7859
▁அருமையான	-11.7859
▁அறியப்பட்ட	-11.7859
▁கட்டுரையொன்ற	-11.7859
▁குழப்பம	-11.7859
▁திரைப்படங்கள	-11.7859
▁தொலைபேசிய	-11.7859
▁நகைச்சுவை	-11.7859
▁பொத்தானை	-11.7859
▁விஷயத்த	-11.7859
▁ಚೆನ್ನಾಗಿ	-11.7859
▁ಪರೀಕ್ಷೆ	-11.7859
▁ಸುದ್ದಿ	-11.7859
▁അടിസ്ഥാനമാക്കി	-11.7859
▁ഉള്ളവരായ	-11.7859
▁കഴിയാത്ത	-11.7859
▁ചീത്തയാ	-11.7859
▁തമാശ	-11.7859
▁നല്ലവരായിര	-11.7859
▁നിലനിൽക്കുന്നത	-11.7859
▁മര്യാദ	-11.7859
▁മറികടന്നു	-11.7859
▁മേഖല	-11.7859
▁ലഭ്യമായ	-11.7859
▁വിക്കിസോഫ്	-11.7859
▁സമ്മതി	-11.7859
▁സേവന	-11.7859
▁സൈനികർക്ക	-11.7859
aanleidinggevend	-11.7859
beskytte	-11.7859
eenkomst	-11.7859
encorajada	-11.7859
environnementale	-11.7859
klänning	-11.7859
parcialidade	-11.7859
préhensi	-11.7859
vertegenwoordig	-11.7859
wikipediaartikel	-11.7859
ällförteckningen	-11.7859
üşürü	-11.7859
ō	-11.7859
ββατο	-11.7859
γυρίζει	-11.7859
κιπα	-11.7859
λεκτικ	-11.7859
λόγι	-11.7859
πίστευ	-11.7859
ταξίδι	-11.7859
ωμιά	-11.7859
авляла	-11.7859
блокиров	-11.7859
ведом	-11.7859
граничени	-11.7859
грузк	-11.7859
добны	-11.7859
дуктивно	-11.7859
истории	-11.7859
казыва	-11.7859
льчика	-11.7859
новлённы	-11.7859
опыт	-11.7859
офис	-11.7859
полагает	-11.7859
помина	-11.7859
рабатывали	-11.7859
слежива	-11.7859
функционирование	-11.7859
ффит	-11.7859
ходящи	-11.7859
циально	-11.7859
шедши	-11.7859
؛	-11.7859
اختلاف	-11.7859
استنتاج	-11.7859
المساهمين	-11.7859
تباط	-11.7859
تقليدية	-11.7859
طاولة	-11.7859
عشوائي	-11.7859
علاجات	-11.7859
مصداقيتها	-11.7859
مقارنة	-11.7859
कड़	-11.7859
निर्द	-11.7859
योजना	-11.7859
विद्या	-11.7859
सहमत	-11.7859
िष्ट	-11.7859
க்கொண்டிருக்க	-11.7859
சிறப்புக்கட்டுரை	-11.7859
சேர்ந்த	-11.7859
ப்படுத்துங்கள்	-11.7859
விக்கிமீட	-11.7859
ைக்குமா	-11.7859
ಃ	-11.7859
ಜ್ಜ	-11.7859
ಬೇಕಾಗಿದೆ	-11.7859
ರಸ್ತುತವಾಗುತ್ತದೆ	-11.7859
ವಳಿಕೆ	-11.7859
ಾತ್ಮಕ	-11.7859
ೊಳ್ಳಬೇಡಿ	-11.7859
್ರೀಮ	-11.7859
കരണത്ത	-11.7859
കുട്ടി	-11.7859
ക്കണക്കിന	-11.7859
നിങ്ങൾക്കറിയില്ല	-11.7859
പ്പെടുത്തിയ	-11.7859
പ്രതിഭാസങ്ങള	-11.7859
ഭാഗമാണ്	-11.7859
മൊക്കെ	-11.7859
യോജിക്കുന്നു	-11.7859
രുന്നവര	-11.7859
ശൂന്യമായ	-11.7859
ാവശ്യ	-11.7859
ിടയില	-11.7859
ിതനാണ	-11.7859
േണ്ടതുണ്ട	-11.7859
്പര്യമില്ല	-11.7859
–	-11.7859
▁abbastanza	-11.7859
▁accélér	-11.7859
▁adolescent	-11.7859
அ	-12.7324
ஞ	-12.7859
ɪ	-12.7859
ढ	-12.7859
ć	-12.7859
ń	-12.7859
́	-12.7859
ϊ	-12.7859
ُ	-12.7859
ऊ	-12.7859
घ	-12.7859
ौ	-12.7859
ಞ	-12.7859
ഃ	-12.7859
ഐ	-12.7859
‐	-12.7859
°	-12.7859
ഔ	-13.5111
ऑ	-13.5112
ऐ	-13.5113
ಐ	-13.5114
ஹ	-13.5115
ஓ	-13.5116
ஊ	-13.5117
ஃ	-13.5118
ஐ	-13.5119
‘	-13.512
ृ	-13.5121
œ	-13.5122
ஜ	-13.5123
ഓ	-13.5124
̇	-13.5125
ಫ	-13.5126
ಈ	-13.5127
ಓ	-13.5128
ஷ	-13.5129
î	-13.513
उ	-13.5131
ъ	-13.5132
ഏ	-13.5133
ഫ	-13.5134
ஏ	-13.5135
ഠ	-13.5136
.	-13.5137
ಉ	-13.5138
ಏ	-13.5139
इ	-13.514
ψ	-13.5141
ஸ	-13.5142
¿	-13.5143
अ	-13.5144
ಒ	-13.5145
ù	-13.5146
ಆ	-13.5147
आ	-13.5148
ζ	-13.5149
ஆ	-13.515
ಇ	-13.5151
õ	-13.5152
ಎ	-13.5153
«	-13.5154
ഉ	-13.5155
ആ	-13.5156
ഒ	-13.5157
ஒ	-13.5158
ै	-13.5159
உ	-13.516
ഇ	-13.5161
ഞ	-13.5162
ಪ	-13.5163
ெ	-13.5164
ಅ	-13.5165
ொ	-13.5166
إ	-13.5167
എ	-13.5168
இ	-13.5169
எ	-13.517
അ	-13.5171
ங	-13.5172
ಂ	-13.5173
ã	-13.5174
ந	-13.5175
ö	-13.5176
τ	-13.5177
ന	-13.5178
q	-13.5179
